<unk>	0
<s>	0
</s>	0
<pad>	0
<0x00>	0
<0x01>	0
<0x02>	0
<0x03>	0
<0x04>	0
<0x05>	0
<0x06>	0
<0x07>	0
<0x08>	0
<0x09>	0
<0x0A>	0
<0x0B>	0
<0x0C>	0
<0x0D>	0
<0x0E>	0
<0x0F>	0
<0x10>	0
<0x11>	0
<0x12>	0
<0x13>	0
<0x14>	0
<0x15>	0
<0x16>	0
<0x17>	0
<0x18>	0
<0x19>	0
<0x1A>	0
<0x1B>	0
<0x1C>	0
<0x1D>	0
<0x1E>	0
<0x1F>	0
<0x20>	0
<0x21>	0
<0x22>	0
<0x23>	0
<0x24>	0
<0x25>	0
<0x26>	0
<0x27>	0
<0x28>	0
<0x29>	0
<0x2A>	0
<0x2B>	0
<0x2C>	0
<0x2D>	0
<0x2E>	0
<0x2F>	0
<0x30>	0
<0x31>	0
<0x32>	0
<0x33>	0
<0x34>	0
<0x35>	0
<0x36>	0
<0x37>	0
<0x38>	0
<0x39>	0
<0x3A>	0
<0x3B>	0
<0x3C>	0
<0x3D>	0
<0x3E>	0
<0x3F>	0
<0x40>	0
<0x41>	0
<0x42>	0
<0x43>	0
<0x44>	0
<0x45>	0
<0x46>	0
<0x47>	0
<0x48>	0
<0x49>	0
<0x4A>	0
<0x4B>	0
<0x4C>	0
<0x4D>	0
<0x4E>	0
<0x4F>	0
<0x50>	0
<0x51>	0
<0x52>	0
<0x53>	0
<0x54>	0
<0x55>	0
<0x56>	0
<0x57>	0
<0x58>	0
<0x59>	0
<0x5A>	0
<0x5B>	0
<0x5C>	0
<0x5D>	0
<0x5E>	0
<0x5F>	0
<0x60>	0
<0x61>	0
<0x62>	0
<0x63>	0
<0x64>	0
<0x65>	0
<0x66>	0
<0x67>	0
<0x68>	0
<0x69>	0
<0x6A>	0
<0x6B>	0
<0x6C>	0
<0x6D>	0
<0x6E>	0
<0x6F>	0
<0x70>	0
<0x71>	0
<0x72>	0
<0x73>	0
<0x74>	0
<0x75>	0
<0x76>	0
<0x77>	0
<0x78>	0
<0x79>	0
<0x7A>	0
<0x7B>	0
<0x7C>	0
<0x7D>	0
<0x7E>	0
<0x7F>	0
<0x80>	0
<0x81>	0
<0x82>	0
<0x83>	0
<0x84>	0
<0x85>	0
<0x86>	0
<0x87>	0
<0x88>	0
<0x89>	0
<0x8A>	0
<0x8B>	0
<0x8C>	0
<0x8D>	0
<0x8E>	0
<0x8F>	0
<0x90>	0
<0x91>	0
<0x92>	0
<0x93>	0
<0x94>	0
<0x95>	0
<0x96>	0
<0x97>	0
<0x98>	0
<0x99>	0
<0x9A>	0
<0x9B>	0
<0x9C>	0
<0x9D>	0
<0x9E>	0
<0x9F>	0
<0xA0>	0
<0xA1>	0
<0xA2>	0
<0xA3>	0
<0xA4>	0
<0xA5>	0
<0xA6>	0
<0xA7>	0
<0xA8>	0
<0xA9>	0
<0xAA>	0
<0xAB>	0
<0xAC>	0
<0xAD>	0
<0xAE>	0
<0xAF>	0
<0xB0>	0
<0xB1>	0
<0xB2>	0
<0xB3>	0
<0xB4>	0
<0xB5>	0
<0xB6>	0
<0xB7>	0
<0xB8>	0
<0xB9>	0
<0xBA>	0
<0xBB>	0
<0xBC>	0
<0xBD>	0
<0xBE>	0
<0xBF>	0
<0xC0>	0
<0xC1>	0
<0xC2>	0
<0xC3>	0
<0xC4>	0
<0xC5>	0
<0xC6>	0
<0xC7>	0
<0xC8>	0
<0xC9>	0
<0xCA>	0
<0xCB>	0
<0xCC>	0
<0xCD>	0
<0xCE>	0
<0xCF>	0
<0xD0>	0
<0xD1>	0
<0xD2>	0
<0xD3>	0
<0xD4>	0
<0xD5>	0
<0xD6>	0
<0xD7>	0
<0xD8>	0
<0xD9>	0
<0xDA>	0
<0xDB>	0
<0xDC>	0
<0xDD>	0
<0xDE>	0
<0xDF>	0
<0xE0>	0
<0xE1>	0
<0xE2>	0
<0xE3>	0
<0xE4>	0
<0xE5>	0
<0xE6>	0
<0xE7>	0
<0xE8>	0
<0xE9>	0
<0xEA>	0
<0xEB>	0
<0xEC>	0
<0xED>	0
<0xEE>	0
<0xEF>	0
<0xF0>	0
<0xF1>	0
<0xF2>	0
<0xF3>	0
<0xF4>	0
<0xF5>	0
<0xF6>	0
<0xF7>	0
<0xF8>	0
<0xF9>	0
<0xFA>	0
<0xFB>	0
<0xFC>	0
<0xFD>	0
<0xFE>	0
<0xFF>	0
▁the	-3.24225
,	-3.25415
.	-3.34959
▁of	-3.68075
s	-3.86088
▁and	-3.8659
▁to	-4.02974
▁a	-4.10181
▁in	-4.24867
▁is	-4.65027
-	-4.98533
▁that	-5.00777
▁The	-5.09536
▁for	-5.10604
▁	-5.1607
▁are	-5.28816
▁on	-5.39019
▁(	-5.42721
▁with	-5.44282
:	-5.45827
▁as	-5.46538
'	-5.48364
▁by	-5.54005
▁or	-5.55371
▁from	-5.6454
▁be	-5.66377
▁it	-5.66991
▁-	-5.70625
)	-5.7226
▁was	-5.76766
▁an	-5.86727
▁at	-5.88681
▁have	-5.91208
’	-5.94172
▁you	-5.96124
▁can	-5.96304
▁this	-6.04186
ing	-6.13775
▁"	-6.18973
▁A	-6.23044
t	-6.23429
▁not	-6.25205
▁has	-6.25819
▁which	-6.27878
▁their	-6.29269
▁In	-6.33743
ed	-6.36974
▁more	-6.38164
?	-6.42971
▁they	-6.43993
▁one	-6.45441
▁I	-6.45554
▁will	-6.47651
▁your	-6.48692
▁about	-6.52697
▁de	-6.53791
▁but	-6.58568
▁This	-6.58894
d	-6.59918
▁were	-6.61548
▁It	-6.61887
;	-6.62648
▁all	-6.68311
e	-6.69146
▁other	-6.69555
▁we	-6.72554
▁“	-6.73044
▁also	-6.73751
▁than	-6.77539
▁been	-6.78482
a	-6.79436
▁his	-6.79957
"	-6.82678
▁its	-6.83071
▁who	-6.84549
▁into	-6.8562
▁people	-6.86386
▁most	-6.86878
▁may	-6.87978
▁when	-6.91988
▁first	-6.92101
▁some	-6.92925
▁|	-6.93967
▁time	-6.95144
▁use	-6.98309
▁new	-6.98409
▁he	-6.99462
S	-6.99955
ly	-7.00345
/	-7.0178
▁used	-7.01958
▁how	-7.02935
er	-7.03123
▁these	-7.04122
▁many	-7.04616
▁up	-7.04776
▁out	-7.06137
▁our	-7.08389
▁two	-7.088
▁do	-7.09877
▁years	-7.10158
▁such	-7.10168
▁so	-7.10663
▁what	-7.1154
y	-7.12027
es	-7.12414
▁had	-7.13234
n	-7.1405
▁there	-7.15631
▁over	-7.16094
▁them	-7.16341
▁only	-7.22988
).	-7.24818
▁water	-7.25096
▁would	-7.25292
th	-7.25543
o	-7.2764
▁no	-7.2789
▁la	-7.28462
▁if	-7.28495
▁like	-7.29563
re	-7.30564
▁through	-7.32186
r	-7.33041
▁between	-7.3559
m	-7.36298
▁world	-7.36964
),	-7.41839
i	-7.43227
▁well	-7.44529
▁make	-7.4556
▁children	-7.45888
”	-7.45939
▁could	-7.46735
▁study	-7.47836
▁where	-7.48717
▁work	-7.4875
▁any	-7.49521
▁help	-7.49648
in	-7.49926
▁y	-7.50544
▁found	-7.50825
▁year	-7.51906
▁information	-7.54456
▁students	-7.55492
▁system	-7.55945
▁each	-7.56117
al	-7.57136
▁un	-7.57334
▁What	-7.57694
▁way	-7.5802
▁For	-7.58163
▁part	-7.59725
▁after	-7.5978
▁If	-7.59849
▁S	-7.59919
▁U	-7.60888
▁que	-7.60983
▁different	-7.61186
▁en	-7.61446
▁said	-7.61593
▁life	-7.61659
▁very	-7.62419
▁University	-7.62662
▁during	-7.62996
▁He	-7.63047
▁just	-7.63375
▁–	-7.63516
▁They	-7.63621
▁research	-7.63682
▁1	-7.64222
▁because	-7.64318
▁C	-7.64767
▁high	-7.64975
▁But	-7.65831
▁New	-7.66647
▁known	-7.66912
▁made	-7.66971
▁important	-7.66994
▁called	-7.67013
▁those	-7.68001
▁should	-7.6908
▁health	-7.6937
▁much	-7.70024
▁long	-7.70679
or	-7.71605
▁often	-7.71677
▁American	-7.71688
▁being	-7.72442
▁data	-7.72447
▁need	-7.72464
▁2	-7.72482
▁using	-7.72916
!	-7.73168
▁even	-7.73567
▁number	-7.73899
|	-7.74576
▁To	-7.74644
▁then	-7.74898
▁As	-7.76634
▁three	-7.76816
▁There	-7.77039
▁her	-7.77246
▁We	-7.78748
▁around	-7.7944
▁both	-7.81353
▁get	-7.81589
▁now	-7.82195
▁day	-7.82657
▁disease	-7.82747
▁B	-7.83497
▁human	-7.83966
c	-7.84261
▁see	-7.84484
▁body	-7.84626
▁United	-7.84735
▁before	-7.85795
▁same	-7.86036
▁3	-7.8624
g	-7.86571
▁You	-7.87116
▁food	-7.87272
D	-7.87871
▁under	-7.88616
▁know	-7.88847
C	-7.89009
▁small	-7.89042
▁energy	-7.89047
▁When	-7.89051
▁school	-7.89128
▁el	-7.89179
▁including	-7.89869
▁history	-7.90509
▁These	-7.90929
▁E	-7.91529
▁National	-7.91754
A	-7.91783
—	-7.92313
▁D	-7.92406
▁common	-7.9319
l	-7.93472
▁while	-7.9409
en	-7.95193
▁re	-7.95243
▁species	-7.95401
▁state	-7.9584
▁take	-7.96714
▁States	-7.96771
▁us	-7.97142
▁large	-7.9773
▁early	-7.99476
▁good	-7.99699
▁back	-8.00416
▁form	-8.00418
▁area	-8.00746
ve	-8.00992
ers	-8.01923
▁name	-8.03355
▁10	-8.03585
▁power	-8.04159
2	-8.05115
▁example	-8.05337
▁—	-8.05497
to	-8.06133
▁own	-8.06148
▁my	-8.06149
▁M	-8.06486
▁find	-8.06998
▁child	-8.07072
,"	-8.0757
▁does	-8.07833
▁per	-8.08181
."	-8.08405
▁change	-8.0853
▁development	-8.09403
the	-8.10556
▁few	-8.1077
▁P	-8.11176
▁include	-8.1132
▁blood	-8.1135
The	-8.11769
▁down	-8.1187
(	-8.11884
▁women	-8.11915
ar	-8.12141
▁million	-8.12534
▁An	-8.12612
us	-8.13255
▁T	-8.13333
▁family	-8.1335
▁last	-8.13424
▁&	-8.13739
▁process	-8.139
▁every	-8.14452
▁public	-8.14733
||	-8.15253
▁light	-8.15878
▁How	-8.16088
on	-8.16133
ic	-8.16431
▁place	-8.16536
▁me	-8.17051
▁right	-8.17246
▁set	-8.17313
▁several	-8.17705
▁still	-8.17981
▁provide	-8.1806
▁cause	-8.18107
▁here	-8.18573
▁percent	-8.18653
▁By	-8.18661
▁'	-8.18852
an	-8.19154
▁And	-8.19546
▁must	-8.19637
▁4	-8.19658
▁within	-8.19777
▁cancer	-8.19917
▁become	-8.20071
▁century	-8.20485
▁5	-8.206
▁risk	-8.20917
k	-8.22082
▁following	-8.22377
▁se	-8.22867
▁cells	-8.2309
▁group	-8.23357
▁less	-8.23677
▁However	-8.23787
▁One	-8.23829
▁since	-8.23839
▁age	-8.2412
▁[	-8.2425
▁book	-8.24365
▁great	-8.2562
▁home	-8.26023
▁might	-8.26799
▁--	-8.27033
▁program	-8.27162
▁natural	-8.2721
ll	-8.27376
▁language	-8.27511
▁end	-8.27571
▁she	-8.27831
b	-8.28175
▁World	-8.28297
▁researchers	-8.28402
▁without	-8.28618
▁type	-8.28647
.”	-8.28794
p	-8.28809
▁country	-8.2897
▁means	-8.29494
▁another	-8.29716
▁off	-8.29963
▁20	-8.30183
▁today	-8.30325
▁una	-8.30657
▁person	-8.30713
▁Earth	-8.30732
▁government	-8.31238
▁social	-8.31343
▁areas	-8.31698
▁says	-8.31949
▁con	-8.32203
▁look	-8.32254
]	-8.32354
▁available	-8.33045
▁science	-8.33318
▁G	-8.33485
▁learn	-8.335
▁War	-8.33531
▁best	-8.33779
1	-8.33832
▁F	-8.34161
able	-8.34215
▁based	-8.34302
▁major	-8.34353
▁=	-8.34426
▁So	-8.34436
▁usually	-8.34634
▁o	-8.34652
▁H	-8.34661
x	-8.34759
▁On	-8.34768
▁heart	-8.34964
▁Some	-8.35361
▁four	-8.35373
▁go	-8.35829
▁learning	-8.36258
I	-8.36713
▁English	-8.36832
▁At	-8.37272
▁brain	-8.37296
▁control	-8.37327
▁among	-8.37415
_	-8.37447
▁land	-8.3758
▁para	-8.37625
▁article	-8.37703
▁America	-8.37746
▁don	-8.37837
▁e	-8.37966
▁population	-8.38308
▁order	-8.38399
▁air	-8.38524
▁problems	-8.38678
▁think	-8.38695
▁K	-8.38698
▁did	-8.38882
▁R	-8.39167
▁N	-8.39338
▁Dr	-8.39439
▁want	-8.39584
▁L	-8.4009
▁space	-8.4019
▁better	-8.40388
▁say	-8.40525
▁come	-8.40915
▁problem	-8.41397
▁against	-8.41495
▁little	-8.41586
▁6	-8.41605
▁scientists	-8.42083
▁15	-8.42091
▁es	-8.42138
man	-8.42245
▁technology	-8.42559
▁project	-8.43045
▁education	-8.43152
B	-8.43424
▁plant	-8.43542
▁create	-8.43588
...	-8.43991
▁across	-8.44046
as	-8.4418
▁point	-8.44425
▁times	-8.44847
▁local	-8.45564
▁non	-8.45584
▁low	-8.45784
▁level	-8.46333
u	-8.46352
▁possible	-8.46492
▁published	-8.4678
▁plants	-8.46989
▁second	-8.47126
▁report	-8.47373
h	-8.47618
,”	-8.47832
▁him	-8.47905
▁words	-8.47992
▁Science	-8.48141
▁along	-8.48321
▁things	-8.48373
▁word	-8.48438
▁result	-8.48474
ity	-8.48505
▁O	-8.48914
▁site	-8.49119
f	-8.49291
▁test	-8.49332
F	-8.49396
▁climate	-8.4946
▁developed	-8.49579
ation	-8.49581
▁past	-8.49729
te	-8.49731
▁too	-8.4993
▁city	-8.50112
▁man	-8.50137
▁until	-8.50251
▁according	-8.50405
▁W	-8.50612
▁fact	-8.50935
▁young	-8.51202
N	-8.51214
▁able	-8.51585
▁course	-8.51808
▁Health	-8.51868
▁systems	-8.51962
▁North	-8.52027
▁levels	-8.52196
▁computer	-8.52268
▁making	-8.5227
▁days	-8.52508
and	-8.53335
▁16	-8.53503
▁That	-8.53613
▁los	-8.53957
▁countries	-8.53993
is	-8.54005
▁surface	-8.54053
▁p	-8.5408
ism	-8.5409
▁All	-8.54229
▁environment	-8.54247
▁later	-8.5437
▁Research	-8.54667
▁present	-8.54895
▁range	-8.55074
▁men	-8.55144
▁old	-8.5515
▁support	-8.55657
▁something	-8.56005
▁given	-8.56135
▁12	-8.56696
▁t	-8.56709
st	-8.56764
▁general	-8.56946
▁text	-8.57143
▁became	-8.572
▁J	-8.57285
▁paper	-8.57304
▁treatment	-8.58003
▁why	-8.5818
▁current	-8.58275
▁community	-8.58441
▁South	-8.58455
E	-8.58474
▁various	-8.58779
▁Here	-8.59068
▁care	-8.59084
com	-8.59154
▁With	-8.59155
P	-8.59254
▁understand	-8.5929
▁together	-8.59373
▁white	-8.59443
▁While	-8.59459
▁resources	-8.59592
▁far	-8.59595
▁likely	-8.59778
▁show	-8.60149
▁free	-8.60522
M	-8.60539
▁five	-8.6057
▁8	-8.60983
▁material	-8.60985
▁State	-8.6106
▁least	-8.61211
▁types	-8.61395
▁lead	-8.61472
▁‘	-8.61562
▁created	-8.61782
▁period	-8.61801
▁1.	-8.61827
▁others	-8.6188
▁key	-8.61925
os	-8.62135
▁term	-8.62202
▁Center	-8.6237
▁image	-8.63017
▁From	-8.63022
▁story	-8.63231
▁read	-8.63322
▁sea	-8.63387
▁c	-8.63393
le	-8.63443
▁After	-8.63503
▁team	-8.63583
▁animals	-8.63671
▁left	-8.63702
▁field	-8.63772
▁conditions	-8.63779
▁May	-8.63811
▁simple	-8.63869
▁near	-8.63969
▁full	-8.64224
3	-8.64288
▁St	-8.64369
▁main	-8.64437
▁due	-8.64489
▁ago	-8.64554
▁black	-8.64623
▁i	-8.64912
▁Many	-8.64943
▁case	-8.64971
▁develop	-8.64972
▁No	-8.65068
▁give	-8.65185
▁class	-8.65389
▁ways	-8.65419
▁design	-8.65445
▁School	-8.65445
▁short	-8.65574
▁7	-8.65816
▁17	-8.6582
▁global	-8.65886
▁changes	-8.65948
▁page	-8.66034
▁below	-8.66232
▁increase	-8.66433
▁studies	-8.66445
▁source	-8.66612
▁specific	-8.66685
▁working	-8.66829
▁size	-8.67089
▁above	-8.67215
▁side	-8.67228
▁Most	-8.67232
▁recent	-8.67414
T	-8.67493
▁La	-8.67663
▁region	-8.67871
▁physical	-8.67928
▁John	-8.68047
▁results	-8.68129
▁live	-8.68241
▁next	-8.68278
▁line	-8.68353
▁question	-8.68449
▁access	-8.68826
▁week	-8.68859
▁n	-8.68935
▁role	-8.69397
▁start	-8.6955
K	-8.69551
▁always	-8.69748
▁especially	-8.70034
▁war	-8.70244
▁future	-8.70342
▁2012	-8.7057
▁gas	-8.70738
▁enough	-8.71078
▁single	-8.71193
▁activities	-8.7124
▁certain	-8.71256
▁however	-8.71588
▁modern	-8.71727
▁death	-8.71822
G	-8.71842
▁seen	-8.71864
▁provides	-8.71916
▁questions	-8.72136
▁co	-8.72492
▁Re	-8.72761
▁function	-8.72932
▁keep	-8.72954
▁began	-8.73242
▁living	-8.73253
▁open	-8.73254
▁building	-8.73599
▁medical	-8.73655
▁activity	-8.73768
ist	-8.73829
ia	-8.74283
H	-8.75046
▁cell	-8.75087
▁b	-8.75271
▁al	-8.75545
▁symptoms	-8.75583
▁pre	-8.75724
it	-8.75768
▁impact	-8.75969
ion	-8.76124
de	-8.76131
ness	-8.76135
▁related	-8.76173
▁designed	-8.76212
▁environmental	-8.76223
▁student	-8.76231
▁York	-8.76234
▁experience	-8.76472
▁similar	-8.76546
▁Do	-8.76849
▁away	-8.77145
▁m	-8.77157
▁thought	-8.77238
▁red	-8.77334
▁hand	-8.77393
▁shows	-8.77394
▁put	-8.77751
▁real	-8.7798
▁production	-8.7801
▁half	-8.7811
▁Department	-8.78331
▁effects	-8.78497
▁River	-8.78531
▁cases	-8.78557
▁History	-8.78589
▁amount	-8.78861
▁skills	-8.78947
▁having	-8.79009
▁list	-8.79144
▁skin	-8.79152
▁law	-8.79169
▁needs	-8.79172
W	-8.79253
▁whether	-8.79311
▁higher	-8.79391
▁growth	-8.79497
▁national	-8.79575
▁California	-8.79718
▁play	-8.7974
▁materials	-8.7985
▁caused	-8.79891
▁almost	-8.80042
▁came	-8.80145
▁knowledge	-8.80146
▁V	-8.80397
▁understanding	-8.80477
▁produce	-8.8052
▁reading	-8.80995
w	-8.80998
▁individual	-8.81274
▁groups	-8.81365
▁oil	-8.81498
ton	-8.81528
z	-8.81607
▁model	-8.81673
▁lower	-8.8196
▁basic	-8.82056
▁parents	-8.82202
▁series	-8.82301
▁Institute	-8.82474
▁never	-8.82811
v	-8.83039
▁considered	-8.83076
▁built	-8.83084
▁top	-8.83117
▁idea	-8.83176
▁taken	-8.83296
▁either	-8.83434
▁view	-8.83437
▁British	-8.83462
▁online	-8.83537
▁30	-8.83591
▁11	-8.83615
▁evidence	-8.83754
▁According	-8.83809
▁d	-8.83968
▁Although	-8.84168
ment	-8.84236
▁economic	-8.84364
▁head	-8.84419
▁art	-8.84484
▁9	-8.84778
▁really	-8.84803
▁value	-8.84814
um	-8.85451
co	-8.85528
▁parts	-8.85663
▁makes	-8.85666
▁potential	-8.85877
▁variety	-8.85915
▁quality	-8.85955
▁US	-8.8607
▁fish	-8.86078
▁reduce	-8.86161
▁particular	-8.86182
▁God	-8.86493
▁patients	-8.87124
▁causes	-8.87255
▁average	-8.87392
▁associated	-8.8746
▁throughout	-8.87523
▁already	-8.87774
▁ever	-8.87824
▁2.	-8.87903
▁includes	-8.8802
▁hard	-8.88114
▁significant	-8.88194
▁actually	-8.88319
▁rate	-8.88397
▁*	-8.88424
▁once	-8.88443
ir	-8.88506
▁pressure	-8.88667
▁states	-8.88761
▁miles	-8.89135
▁March	-8.89438
▁ground	-8.89483
ive	-8.89571
▁comes	-8.89902
▁del	-8.89968
▁issue	-8.89988
▁son	-8.89992
ne	-8.90023
4	-8.90056
▁going	-8.90089
▁issues	-8.90308
▁weight	-8.90381
▁solar	-8.90659
▁born	-8.90737
▁color	-8.9083
▁More	-8.90837
▁June	-8.90906
ian	-8.90983
▁method	-8.90994
▁Day	-8.90998
▁written	-8.91297
▁nature	-8.91349
▁products	-8.91445
▁largest	-8.91547
▁feet	-8.91597
me	-8.916
based	-8.91629
▁De	-8.91684
▁/	-8.91812
up	-8.91877
▁though	-8.92076
▁led	-8.92123
▁ability	-8.92134
▁14	-8.92148
▁carbon	-8.92152
▁His	-8.92461
▁scientific	-8.92475
▁special	-8.92785
▁lot	-8.92802
▁effect	-8.93047
▁political	-8.93128
el	-8.93155
▁months	-8.93334
▁NASA	-8.9339
▁rights	-8.93534
▁works	-8.93586
▁rather	-8.93638
ch	-8.94259
▁healthy	-8.9434
的	-8.94409
L	-8.94532
na	-8.94685
▁County	-8.94737
▁took	-8.9491
do	-8.94987
▁x	-8.95081
▁done	-8.95289
▁sometimes	-8.95423
▁plan	-8.9551
▁structure	-8.95613
▁First	-8.95735
▁factors	-8.96067
ry	-8.9616
▁heat	-8.96202
▁schools	-8.9627
▁Your	-8.96273
▁soil	-8.96336
▁post	-8.96451
▁animal	-8.96734
▁late	-8.96795
▁ancient	-8.96872
▁lives	-8.96977
▁popular	-8.97304
▁su	-8.97337
▁six	-8.97523
▁self	-8.97625
▁Europe	-8.97749
R	-8.97936
▁total	-8.97962
▁temperature	-8.98041
▁practice	-8.9826
at	-8.98435
▁increased	-8.98611
▁developing	-8.98626
▁writing	-8.98707
▁whole	-8.98748
▁growing	-8.99017
▁condition	-8.99045
▁green	-8.99074
▁...	-8.99122
▁X	-8.99208
▁produced	-8.99213
▁April	-8.9955
▁complex	-8.99634
▁She	-8.99893
▁prevent	-8.99908
▁African	-8.99933
▁100	-9.00078
▁code	-9.00322
▁wide	-9.00481
▁video	-9.005
ra	-9.00635
ta	-9.00726
▁upon	-9.01021
▁uses	-9.01087
▁itself	-9.01092
▁sources	-9.01138
ate	-9.01158
▁addition	-9.01507
▁close	-9.01632
▁difficult	-9.01654
▁numbers	-9.0171
▁13	-9.01821
▁European	-9.0208
5	-9.02211
▁loss	-9.02355
il	-9.02384
▁2011	-9.02391
▁occur	-9.02449
▁pain	-9.02472
▁kids	-9.02491
▁programs	-9.02565
▁Education	-9.02696
▁yet	-9.02792
▁18	-9.02837
▁author	-9.02947
▁normal	-9.03062
▁images	-9.03123
▁sun	-9.03252
▁July	-9.03327
▁answer	-9.03391
▁sure	-9.034
▁nearly	-9.0346
V	-9.03604
▁members	-9.03693
▁car	-9.03724
▁Africa	-9.03777
▁During	-9.03801
▁content	-9.03801
▁file	-9.03807
▁El	-9.03812
▁и	-9.03813
▁French	-9.03851
▁events	-9.03867
▁terms	-9.04016
▁improve	-9.04059
▁Now	-9.04486
▁Americans	-9.04491
▁forms	-9.04893
▁discovered	-9.04928
▁provided	-9.04984
▁sub	-9.05076
▁tree	-9.05192
▁19	-9.05326
▁themselves	-9.05369
▁West	-9.05491
▁easy	-9.05608
▁matter	-9.05628
▁located	-9.05926
▁sound	-9.05935
O	-9.05941
▁summer	-9.06057
▁cost	-9.0621
▁grow	-9.06505
▁original	-9.06618
▁build	-9.06797
▁damage	-9.06804
▁culture	-9.06819
▁turn	-9.07109
▁needed	-9.07524
ine	-9.07538
▁web	-9.0763
▁sense	-9.07648
▁mean	-9.0772
▁nation	-9.07941
▁China	-9.07946
▁Act	-9.07957
▁effective	-9.08152
▁music	-9.08186
▁recently	-9.08189
▁50	-9.0827
▁industry	-9.08302
▁further	-9.08339
▁subject	-9.08349
▁por	-9.08472
▁January	-9.08548
▁object	-9.08721
▁eye	-9.08726
▁generally	-9.08769
▁teachers	-9.08806
▁probably	-9.08806
▁run	-9.08867
▁Why	-9.08914
▁movement	-9.08949
▁reported	-9.09043
▁move	-9.09087
▁humans	-9.0917
▁International	-9.09177
▁lo	-9.0922
▁Washington	-9.09244
▁big	-9.09263
▁f	-9.0941
▁England	-9.09521
▁trees	-9.09716
▁tools	-9.09722
no	-9.09797
▁am	-9.09867
▁management	-9.09975
▁•	-9.10148
▁game	-9.10217
▁2010	-9.10375
▁standard	-9.1053
year	-9.10611
▁approach	-9.10652
▁focus	-9.10692
▁analysis	-9.10861
▁clear	-9.11056
▁Great	-9.11154
▁books	-9.11192
ro	-9.11341
▁call	-9.1136
▁kind	-9.11364
age	-9.11378
▁meaning	-9.11489
▁hours	-9.11529
ary	-9.1158
▁contains	-9.11635
▁Can	-9.11644
▁taking	-9.11706
▁Since	-9.11916
▁central	-9.11959
▁II	-9.11993
▁planet	-9.12035
▁>	-9.12088
▁international	-9.12102
like	-9.12107
▁face	-9.12139
▁service	-9.12231
▁personal	-9.12284
▁theory	-9.12443
▁las	-9.12448
Y	-9.12488
▁unique	-9.12558
▁required	-9.12569
▁protect	-9.12734
▁earth	-9.12828
▁methods	-9.12835
▁month	-9.12977
less	-9.12996
▁strong	-9.13144
▁India	-9.1315
▁fire	-9.13216
▁believe	-9.13241
▁beginning	-9.13273
▁shown	-9.13388
▁true	-9.13388
▁Canada	-9.1344
▁ice	-9.13448
▁Our	-9.13667
▁cannot	-9.1382
▁Each	-9.13822
▁professor	-9.13856
▁action	-9.13871
▁named	-9.13989
▁weather	-9.14053
▁primary	-9.14237
▁thing	-9.14247
▁money	-9.14362
▁diseases	-9.14433
▁See	-9.14494
▁September	-9.14589
▁eat	-9.14665
▁etc	-9.14826
▁particularly	-9.14919
▁3.	-9.14931
▁President	-9.15117
▁feel	-9.15161
▁в	-9.15312
▁Be	-9.15626
▁search	-9.15728
rs	-9.15948
am	-9.15958
▁August	-9.16017
da	-9.1608
▁established	-9.16228
▁October	-9.1651
▁involved	-9.16669
▁services	-9.16699
▁2013	-9.16788
▁ideas	-9.17014
▁longer	-9.17164
▁response	-9.17229
▁interest	-9.17236
▁society	-9.17299
▁objects	-9.17431
▁individuals	-9.1747
id	-9.1751
▁San	-9.17721
▁share	-9.17764
▁inside	-9.1781
▁leading	-9.17861
▁media	-9.17968
▁allow	-9.18003
▁attention	-9.18076
▁behavior	-9.1809
▁outside	-9.18095
▁Water	-9.18189
▁begin	-9.18223
un	-9.18309
▁complete	-9.18362
▁winter	-9.18559
▁determine	-9.18569
son	-9.18624
▁features	-9.18951
▁chemical	-9.18961
▁training	-9.19038
J	-9.19087
▁business	-9.1911
▁spread	-9.19121
ma	-9.19178
▁Today	-9.19262
▁German	-9.19262
▁fall	-9.19289
▁mind	-9.19381
▁safety	-9.19388
>	-9.19665
▁night	-9.19713
land	-9.19713
▁adults	-9.19796
ling	-9.19826
▁behind	-9.20134
▁whose	-9.2019
▁north	-9.20209
ies	-9.20245
▁wind	-9.20249
▁started	-9.20326
▁add	-9.20454
▁looking	-9.20485
be	-9.20554
://	-9.20597
▁infection	-9.20655
▁collection	-9.20726
▁write	-9.20773
▁diet	-9.20835
▁City	-9.20858
▁again	-9.2092
▁mass	-9.20934
▁software	-9.20943
▁force	-9.21198
▁event	-9.21263
▁reason	-9.21281
▁die	-9.21304
▁record	-9.21356
▁center	-9.21566
▁larger	-9.21573
et	-9.216
▁included	-9.21622
▁December	-9.21698
▁En	-9.21699
▁simply	-9.21889
▁billion	-9.21907
▁house	-9.21916
–	-9.21966
▁section	-9.21995
▁try	-9.22083
▁fuel	-9.22435
▁traditional	-9.22456
▁native	-9.22519
▁takes	-9.22526
▁teaching	-9.22707
▁commonly	-9.228
▁third	-9.22955
▁birds	-9.22997
▁King	-9.23195
ized	-9.2324
▁Children	-9.23248
▁25	-9.23265
▁held	-9.23268
▁network	-9.23381
▁Use	-9.23428
▁tell	-9.23754
▁virus	-9.23785
▁communities	-9.24236
▁rest	-9.24348
▁como	-9.24363
▁town	-9.24497
▁serious	-9.24512
▁foods	-9.24541
men	-9.24725
▁Of	-9.24916
▁greater	-9.25062
▁families	-9.25114
▁February	-9.25288
▁necessary	-9.25398
▁highly	-9.25478
ization	-9.25729
ant	-9.25771
ge	-9.25795
▁birth	-9.25797
▁diabetes	-9.25821
▁consider	-9.25882
▁federal	-9.25927
▁affect	-9.25928
▁length	-9.25932
é	-9.26173
▁south	-9.26216
。	-9.26273
la	-9.26496
▁People	-9.26508
▁About	-9.26513
▁contact	-9.2659
▁step	-9.26598
ting	-9.26626
ur	-9.26633
est	-9.26672
▁getting	-9.26858
▁Internet	-9.269
▁speed	-9.26993
▁November	-9.27023
ty	-9.27092
▁entire	-9.27297
▁+	-9.2734
▁sites	-9.27411
▁Web	-9.27431
▁l	-9.27433
▁bacteria	-9.27518
▁Indian	-9.27664
▁doesn	-9.27666
▁Co	-9.27976
▁military	-9.28096
We	-9.28236
▁concept	-9.28296
▁company	-9.28466
▁map	-9.2879
by	-9.28815
U	-9.28921
im	-9.29101
▁College	-9.29159
▁Is	-9.29264
▁position	-9.29626
▁Australia	-9.29689
▁Park	-9.29741
▁act	-9.29749
е	-9.29761
▁g	-9.29849
▁Because	-9.29891
▁multiple	-9.29913
▁40	-9.30004
▁2009	-9.30028
▁deep	-9.30228
▁Al	-9.30371
▁Other	-9.30466
▁occurs	-9.30804
▁Museum	-9.30865
▁Students	-9.31112
▁Space	-9.31133
▁appear	-9.31193
▁anti	-9.31198
▁cut	-9.3121
▁active	-9.31225
se	-9.31281
▁v	-9.31457
▁quite	-9.31527
▁performance	-9.31544
▁middle	-9.3156
▁version	-9.31675
▁allows	-9.31816
This	-9.31871
lo	-9.31872
▁date	-9.31928
▁base	-9.31934
▁poor	-9.31986
▁someone	-9.32022
▁memory	-9.32073
▁leaves	-9.32094
▁cold	-9.32098
▁useful	-9.32205
▁genetic	-9.3235
▁star	-9.32424
▁essential	-9.32871
▁require	-9.32973
▁benefits	-9.33008
▁Project	-9.33024
▁news	-9.33106
▁continue	-9.33126
nd	-9.3324
▁doing	-9.33469
▁historical	-9.33498
one	-9.33591
▁goal	-9.3364
▁East	-9.33643
▁My	-9.33769
ca	-9.33864
▁let	-9.33924
▁tool	-9.34027
▁waste	-9.34031
▁ensure	-9.34153
▁blue	-9.34312
▁shape	-9.34352
▁purpose	-9.34377
ous	-9.34378
▁product	-9.34481
▁William	-9.34512
▁critical	-9.34597
▁techniques	-9.34868
▁elements	-9.34931
▁dis	-9.35037
▁difference	-9.35237
▁flow	-9.35237
=	-9.35243
▁quickly	-9.3534
▁easily	-9.35365
▁sleep	-9.3541
▁described	-9.35439
ter	-9.35485
▁Not	-9.35836
▁HIV	-9.35922
▁Texas	-9.35927
▁Roman	-9.35959
▁policy	-9.35973
▁thousands	-9.36098
▁DNA	-9.36157
▁safe	-9.36197
▁address	-9.36347
▁daily	-9.36406
ent	-9.36422
▁contain	-9.3649
▁21	-9.36625
▁di	-9.36705
ally	-9.3675
▁directly	-9.36783
▁love	-9.36812
▁pages	-9.36815
In	-9.3682
▁cultural	-9.36831
▁ten	-9.36832
▁website	-9.36983
ad	-9.36996
▁device	-9.37064
▁direct	-9.37081
▁General	-9.3712
▁typically	-9.37156
6	-9.3716
▁points	-9.37187
▁teacher	-9.37235
line	-9.37258
▁user	-9.37304
▁formed	-9.37365
▁measure	-9.376
ance	-9.37719
▁с	-9.38061
▁front	-9.38097
▁identify	-9.38101
▁Sea	-9.38121
▁released	-9.38164
▁baby	-9.38179
org	-9.38242
▁died	-9.38345
а	-9.3842
▁:	-9.38455
▁older	-9.38539
▁protein	-9.38559
ie	-9.38705
▁river	-9.38719
▁te	-9.39037
▁father	-9.39126
▁lack	-9.39158
▁Society	-9.39292
▁на	-9.39299
▁dark	-9.39311
▁applications	-9.39375
▁seems	-9.3938
ce	-9.39555
j	-9.39576
▁disorder	-9.39637
▁return	-9.39748
▁although	-9.39772
mo	-9.39836
ish	-9.39909
▁severe	-9.40103
▁processes	-9.40297
▁location	-9.40403
▁flu	-9.40445
▁supply	-9.40497
▁follow	-9.4061
▁currently	-9.40807
▁emissions	-9.40829
▁drug	-9.40877
▁th	-9.4092
▁importance	-9.40934
▁exercise	-9.41141
▁brought	-9.41149
▁Over	-9.41217
ated	-9.41258
▁link	-9.41527
old	-9.41532
▁et	-9.41642
▁Sun	-9.41687
ted	-9.41746
▁2008	-9.41759
▁Black	-9.41863
▁creating	-9.41938
▁rich	-9.41945
▁Greek	-9.41992
▁tests	-9.42027
▁Mexico	-9.42141
▁instead	-9.42245
▁market	-9.42246
▁decades	-9.42408
▁bring	-9.42553
▁mid	-9.4274
▁Energy	-9.4284
▁km	-9.42891
▁France	-9.42905
▁mother	-9.42937
▁sent	-9.42977
▁Chinese	-9.43012
▁Even	-9.43017
▁account	-9.43067
▁lost	-9.43115
▁lines	-9.43375
▁más	-9.43379
▁Medical	-9.43409
▁Union	-9.43437
▁digital	-9.43441
▁devices	-9.43525
▁increasing	-9.43535
▁rise	-9.43569
▁member	-9.43632
▁review	-9.4365
time	-9.43663
▁Or	-9.43747
▁compared	-9.43802
▁nuclear	-9.43873
▁(19	-9.43879
ating	-9.43911
▁received	-9.43927
▁square	-9.43929
▁Please	-9.44016
▁findings	-9.44091
▁standards	-9.44149
▁application	-9.44159
▁eating	-9.4426
▁mental	-9.44292
▁remains	-9.44365
▁added	-9.4448
▁Researchers	-9.44508
of	-9.44584
▁Their	-9.44661
▁weeks	-9.44699
▁4.	-9.44766
▁James	-9.44803
▁helps	-9.4493
▁smaller	-9.45017
▁spring	-9.45095
▁additional	-9.45129
▁went	-9.4513
▁Jewish	-9.45193
▁season	-9.45264
go	-9.45284
▁Japan	-9.453
▁picture	-9.45357
▁exposure	-9.45443
▁famous	-9.45555
term	-9.45578
▁<	-9.45582
▁visit	-9.45646
▁educational	-9.4569
▁resource	-9.46098
ley	-9.461
▁le	-9.46126
It	-9.46151
▁southern	-9.46308
▁powerful	-9.46357
▁religious	-9.46376
▁soon	-9.46387
▁forest	-9.46392
▁Program	-9.46393
▁efforts	-9.464
▁reports	-9.46436
▁places	-9.46496
▁classroom	-9.46498
▁hands	-9.46509
▁fruit	-9.46515
▁scale	-9.46516
▁eyes	-9.46657
▁approximately	-9.46706
▁projects	-9.46706
▁Mar	-9.46721
▁House	-9.46824
▁Human	-9.46862
▁London	-9.46889
▁mission	-9.46905
ology	-9.46916
▁stress	-9.4698
▁protection	-9.47026
▁responsible	-9.47032
▁names	-9.47113
▁pro	-9.4715
▁rates	-9.47256
▁ocean	-9.47399
day	-9.47467
▁si	-9.47495
li	-9.47496
▁dry	-9.47563
▁Two	-9.47571
▁northern	-9.47639
▁wild	-9.47665
▁Western	-9.478
▁thinking	-9.47805
▁THE	-9.47882
▁Germany	-9.47965
ten	-9.4797
▁George	-9.48003
▁electricity	-9.48003
▁explain	-9.48135
▁hot	-9.48182
▁News	-9.48256
▁drugs	-9.48279
▁journal	-9.48333
▁Civil	-9.48398
▁told	-9.484
▁influence	-9.48461
▁effort	-9.48465
▁asked	-9.48485
▁guide	-9.4851
8	-9.48569
▁0	-9.48575
▁defined	-9.48591
▁construction	-9.48659
▁doctor	-9.4867
▁interesting	-9.48677
▁values	-9.48727
▁Association	-9.48888
ul	-9.49152
▁unit	-9.49161
▁Medicine	-9.49208
▁reach	-9.49247
▁examples	-9.49247
▁trade	-9.49266
▁Service	-9.49313
▁positive	-9.4932
den	-9.49435
▁David	-9.49443
▁cover	-9.49452
▁character	-9.49531
▁minutes	-9.49553
▁breast	-9.49612
▁followed	-9.49677
▁$	-9.49706
▁fat	-9.50073
▁seem	-9.50114
);	-9.50146
▁earlier	-9.50178
▁capital	-9.50186
▁identified	-9.50239
▁appears	-9.50244
▁meet	-9.5037
▁machine	-9.5043
▁limited	-9.50439
▁w	-9.50499
▁#	-9.50527
▁requires	-9.50604
ite	-9.50679
▁Spanish	-9.50743
▁Journal	-9.50922
▁tissue	-9.51045
▁previous	-9.51202
7	-9.51236
▁fun	-9.51237
▁bit	-9.51396
▁users	-9.51406
▁Information	-9.51411
▁1,	-9.51425
▁medicine	-9.51441
▁avoid	-9.51515
▁System	-9.51522
▁Library	-9.51549
▁wrote	-9.51593
▁seven	-9.51927
ner	-9.51983
▁Environmental	-9.52007
▁expected	-9.52021
▁24	-9.52041
▁Y	-9.52161
▁radiation	-9.52223
▁Congress	-9.52239
▁Church	-9.5228
▁stop	-9.52291
▁Also	-9.52308
▁rare	-9.52329
▁rock	-9.52375
▁offer	-9.52389
▁communication	-9.52437
▁Public	-9.52497
▁Pacific	-9.52528
▁Using	-9.52552
▁stories	-9.52719
▁economy	-9.52775
▁got	-9.52781
ut	-9.52922
▁talk	-9.52961
▁estimated	-9.53033
▁coast	-9.53196
0	-9.53273
▁check	-9.53277
▁toward	-9.53294
ists	-9.53298
▁widely	-9.53299
▁High	-9.53386
▁piece	-9.53537
▁Mars	-9.53569
▁document	-9.53582
▁attack	-9.53594
▁security	-9.53602
▁Food	-9.53649
▁island	-9.53847
▁Technology	-9.53849
▁providing	-9.53857
▁gives	-9.5391
▁describe	-9.53932
▁travel	-9.5404
▁appropriate	-9.54045
▁affected	-9.54097
ful	-9.54273
▁functions	-9.54276
he	-9.54305
▁woman	-9.5435
▁Once	-9.54358
▁bad	-9.54474
и	-9.54496
▁relationship	-9.54518
▁distance	-9.54862
▁ask	-9.5487
▁suggests	-9.55244
▁sugar	-9.55358
▁Asia	-9.55397
▁style	-9.55404
▁Island	-9.55497
▁atmosphere	-9.55699
▁lived	-9.5577
▁anything	-9.55793
▁job	-9.55909
▁gene	-9.55975
▁bone	-9.56268
▁moon	-9.56533
▁patient	-9.56591
▁private	-9.5665
▁bird	-9.56674
▁offers	-9.56779
",	-9.57017
▁workers	-9.57068
▁relatively	-9.57084
out	-9.57139
▁table	-9.57254
▁patterns	-9.57341
▁regular	-9.57344
▁goes	-9.57394
io	-9.57412
▁property	-9.57529
▁saw	-9.57562
▁cities	-9.5762
▁correct	-9.57677
▁steps	-9.57681
▁final	-9.57771
▁trying	-9.57809
ah	-9.5782
▁Then	-9.57851
▁Le	-9.57968
▁beyond	-9.57991
▁clean	-9.58071
▁topic	-9.58126
▁annual	-9.58136
▁Latin	-9.58172
ó	-9.5826
▁properties	-9.58365
▁Un	-9.58515
▁hold	-9.58521
▁experts	-9.58633
▁successful	-9.58637
▁Dictionary	-9.587
*	-9.58739
".	-9.58768
ize	-9.58806
▁testing	-9.58811
▁regions	-9.58813
▁Japanese	-9.5882
ard	-9.58949
▁ser	-9.58956
see	-9.58959
▁http	-9.58961
--	-9.59013
▁Man	-9.59033
▁receive	-9.59123
▁changed	-9.59223
▁eight	-9.59289
▁stage	-9.59342
▁Red	-9.59353
▁conducted	-9.59378
▁basis	-9.59403
▁Air	-9.59473
▁records	-9.5958
▁reasons	-9.59639
▁differences	-9.59657
▁room	-9.59696
ado	-9.59721
▁female	-9.59797
▁pay	-9.59902
▁technologies	-9.5997
▁chapter	-9.60048
▁save	-9.60116
▁thus	-9.60178
per	-9.60202
▁rules	-9.60212
di	-9.60339
▁success	-9.60363
▁Z	-9.6046
▁believed	-9.60568
▁Part	-9.60579
▁via	-9.60608
▁60	-9.60645
▁Go	-9.60689
▁models	-9.60869
▁latest	-9.60878
em	-9.60933
X	-9.60956
▁mouth	-9.6116
▁fast	-9.61177
▁forces	-9.61382
▁presented	-9.6139
▁Lake	-9.61443
▁adult	-9.61517
▁decision	-9.61653
▁temperatures	-9.61654
▁math	-9.61726
▁h	-9.61746
▁wood	-9.6181
▁immune	-9.61839
▁introduced	-9.61906
▁acid	-9.6196
▁equipment	-9.61981
▁(18	-9.62006
▁lesson	-9.62034
▁upper	-9.62049
▁everything	-9.62051
▁articles	-9.62161
ac	-9.62162
▁teach	-9.62211
▁Free	-9.62282
▁||	-9.62319
▁multi	-9.62403
▁film	-9.62526
▁Scientists	-9.62553
▁stars	-9.6268
▁2007	-9.62866
▁figure	-9.6291
▁Art	-9.62917
▁Robert	-9.6293
▁west	-9.63004
▁ha	-9.63113
▁treat	-9.63175
▁click	-9.63197
▁separate	-9.63332
▁equal	-9.63363
▁degree	-9.63412
▁UK	-9.63514
▁running	-9.6352
▁grade	-9.63614
▁Professor	-9.6366
▁engineering	-9.63687
▁won	-9.63894
▁generation	-9.63898
▁solution	-9.63899
▁fields	-9.63943
▁moving	-9.63948
▁k	-9.63956
▁centuries	-9.63967
▁letter	-9.6402
▁Con	-9.64022
▁Virginia	-9.64026
▁situation	-9.6411
▁items	-9.64326
▁legal	-9.64358
▁literature	-9.64358
▁Language	-9.64421
▁passed	-9.64517
▁tu	-9.64598
▁r	-9.64617
▁Last	-9.64735
ber	-9.64735
▁discovery	-9.64776
▁therefore	-9.6485
▁Click	-9.64893
▁worked	-9.64926
▁pattern	-9.64936
▁organization	-9.64942
▁opportunity	-9.65005
▁placed	-9.65062
▁release	-9.65077
▁college	-9.65158
▁commercial	-9.65289
▁milk	-9.65403
▁definition	-9.65467
▁Bay	-9.65504
▁mi	-9.65588
▁Development	-9.65604
con	-9.65604
▁break	-9.65665
tic	-9.65682
▁practices	-9.65686
▁hope	-9.65742
▁exist	-9.65838
▁visual	-9.65921
▁male	-9.66058
▁Se	-9.662
▁laws	-9.6624
▁everyone	-9.66243
ti	-9.66262
▁financial	-9.66263
▁vision	-9.66286
▁director	-9.66331
▁structures	-9.66335
▁covered	-9.66346
▁dog	-9.66354
▁cross	-9.66396
▁referred	-9.66479
▁companies	-9.66521
▁context	-9.66534
▁explore	-9.6656
▁applied	-9.66623
▁east	-9.66679
▁print	-9.66835
▁radio	-9.66905
▁languages	-9.66912
▁costs	-9.67004
der	-9.67021
▁Learning	-9.67063
▁components	-9.6714
▁Si	-9.67148
▁Learn	-9.67278
▁oxygen	-9.67284
▁Florida	-9.67292
ha	-9.67329
▁huge	-9.6736
ak	-9.67452
▁Central	-9.67495
▁distribution	-9.67544
▁professional	-9.67612
▁choose	-9.6768
▁conservation	-9.67688
▁White	-9.67698
▁factor	-9.67754
▁remain	-9.67782
▁pollution	-9.67837
▁garden	-9.67876
▁metal	-9.6788
▁survey	-9.6792
▁command	-9.67994
▁technique	-9.68034
▁finding	-9.68124
▁aspects	-9.68127
▁organic	-9.68142
▁Middle	-9.68173
▁urban	-9.68183
▁Life	-9.68197
▁majority	-9.68214
9	-9.6824
ence	-9.68254
▁progress	-9.68362
▁represent	-9.68376
▁warming	-9.6851
▁details	-9.686
▁coming	-9.68653
▁yellow	-9.68744
▁rule	-9.68761
▁alone	-9.68778
▁Pre	-9.68865
▁Study	-9.68902
▁president	-9.69034
▁Green	-9.69278
▁Home	-9.69305
▁learned	-9.69347
▁22	-9.69353
ol	-9.69399
▁actual	-9.69691
▁micro	-9.69724
▁western	-9.69747
ler	-9.69807
▁Let	-9.69813
▁games	-9.69815
▁highest	-9.69935
▁nothing	-9.70033
Z	-9.70083
í	-9.70132
▁Council	-9.70183
▁degrees	-9.70204
▁bottom	-9.70206
▁Her	-9.70223
▁challenges	-9.70262
▁signs	-9.70297
▁Thomas	-9.70316
ga	-9.70317
▁Me	-9.7038
▁feed	-9.70425
ba	-9.70604
▁evolution	-9.70672
▁display	-9.70695
▁perhaps	-9.70822
▁suggest	-9.70837
10	-9.70949
▁habitat	-9.70973
▁Don	-9.70983
▁links	-9.71089
▁tend	-9.71117
▁towards	-9.71122
ium	-9.71241
▁please	-9.71257
www	-9.71275
):	-9.71289
▁Britain	-9.71416
▁refers	-9.71555
▁moved	-9.71611
-19	-9.71688
ri	-9.71704
▁origin	-9.71729
▁friends	-9.71763
▁Are	-9.71785
▁reference	-9.7181
▁disorders	-9.71893
tro	-9.71907
▁concepts	-9.72082
▁warm	-9.72113
▁church	-9.72169
▁Christian	-9.7228
led	-9.72281
▁Control	-9.72304
▁layer	-9.72367
▁didn	-9.72596
ex	-9.72682
▁measures	-9.72726
▁solid	-9.72739
[	-9.72778
▁inter	-9.72835
▁extra	-9.72853
▁Press	-9.72872
▁benefit	-9.72932
▁road	-9.72975
▁sign	-9.72982
▁library	-9.72984
▁Old	-9.72992
:||	-9.7315
▁buildings	-9.73167
▁becomes	-9.73171
▁becoming	-9.73192
▁Ocean	-9.73214
▁direction	-9.73238
▁negative	-9.7324
▁discussion	-9.73271
▁studied	-9.73289
tion	-9.73327
▁store	-9.73425
▁Cancer	-9.73455
▁Car	-9.73469
▁Read	-9.73479
▁else	-9.73513
▁remember	-9.73521
▁meeting	-9.73538
▁served	-9.73551
▁perform	-9.73702
▁Paul	-9.73784
▁task	-9.73862
▁gave	-9.73866
▁muscle	-9.73875
▁begins	-9.73988
izing	-9.73997
▁primarily	-9.73998
▁CO	-9.7413
▁fundamental	-9.74159
▁isn	-9.7422
▁Open	-9.74309
▁race	-9.74329
▁Government	-9.74348
▁Book	-9.74386
▁planning	-9.74414
▁infections	-9.74659
▁populations	-9.74724
▁teeth	-9.74769
▁status	-9.74794
▁speech	-9.7491
▁consumption	-9.7491
▁civil	-9.7493
у	-9.74971
я	-9.75141
▁combination	-9.75175
▁board	-9.75192
▁office	-9.75234
▁illness	-9.75333
ina	-9.75357
▁mostly	-9.75423
▁bodies	-9.75435
▁©	-9.75439
▁plans	-9.75465
▁completely	-9.75478
á	-9.75563
▁frequently	-9.75574
▁official	-9.75631
▁former	-9.75719
▁consists	-9.75739
for	-9.75761
▁era	-9.75885
▁involves	-9.75891
so	-9.7601
▁не	-9.76049
▁causing	-9.76053
▁Data	-9.76069
▁maintain	-9.76091
+	-9.76092
▁flowers	-9.76114
▁existing	-9.76155
▁heavy	-9.76183
▁strategies	-9.76192
▁showed	-9.76284
ke	-9.76338
▁extremely	-9.76347
▁staff	-9.76509
▁marine	-9.76592
▁Women	-9.76704
▁genes	-9.76721
▁chance	-9.76851
▁deal	-9.76862
▁note	-9.76889
▁iron	-9.76972
▁pass	-9.76984
▁numerous	-9.77007
▁Nature	-9.77063
▁Disease	-9.77148
▁hear	-9.77186
ung	-9.772
▁experiment	-9.77287
▁changing	-9.77407
▁tiny	-9.77475
▁OF	-9.77554
▁eventually	-9.77597
▁volume	-9.77618
que	-9.7765
▁gold	-9.77656
▁originally	-9.77662
▁chemicals	-9.77818
▁carried	-9.77833
▁Ph	-9.77941
min	-9.78038
▁photo	-9.78049
▁characteristics	-9.78162
▁exactly	-9.78163
▁database	-9.78172
▁academic	-9.78177
gen	-9.7822
▁overall	-9.78301
▁element	-9.7831
▁particles	-9.78326
▁Na	-9.78444
▁starting	-9.78457
▁industrial	-9.78539
▁hair	-9.78594
▁biological	-9.78698
▁linked	-9.78704
▁income	-9.78738
▁electrical	-9.78988
▁creation	-9.79091
▁Mo	-9.79148
sh	-9.79171
po	-9.7919
▁Charles	-9.79226
▁topics	-9.79348
▁wall	-9.79386
▁Climate	-9.79386
▁Q	-9.79484
▁electric	-9.79527
▁coal	-9.79651
▁statement	-9.79672
ka	-9.79806
▁Columbia	-9.79821
▁message	-9.79843
▁therapy	-9.79876
▁dangerous	-9.79879
▁fresh	-9.79885
▁himself	-9.79921
▁Australian	-9.7994
▁files	-9.79972
▁Date	-9.79976
▁fully	-9.80014
▁Find	-9.80022
▁chronic	-9.80065
▁carry	-9.80095
▁drive	-9.80207
▁alcohol	-9.80257
▁heard	-9.80273
▁200	-9.80304
▁universe	-9.8038
▁Natural	-9.80425
▁cycle	-9.8059
▁sky	-9.80606
▁Resources	-9.80638
▁cent	-9.80692
▁spent	-9.80696
▁Jesus	-9.80715
▁principles	-9.8083
▁alternative	-9.80833
▁Before	-9.80863
▁depression	-9.80888
▁height	-9.80902
▁worldwide	-9.80925
▁Ha	-9.80949
▁choice	-9.80965
▁notes	-9.81122
▁Social	-9.81185
▁Guide	-9.8119
▁affects	-9.81202
▁hundreds	-9.81256
▁challenge	-9.81284
▁path	-9.81334
▁background	-9.81347
▁proper	-9.81371
▁slow	-9.81386
▁ex	-9.81433
ni	-9.81465
▁bio	-9.81485
▁giving	-9.81501
▁demand	-9.81674
▁syndrome	-9.81679
▁Global	-9.81747
pa	-9.82003
▁advanced	-9.82006
▁stay	-9.82031
▁по	-9.82039
▁reduced	-9.82057
▁Just	-9.82079
▁root	-9.82097
ial	-9.82137
we	-9.82142
▁goals	-9.82193
▁meat	-9.82217
▁wildlife	-9.8222
▁familiar	-9.82297
▁wrong	-9.82322
ier	-9.8244
ang	-9.82441
▁gain	-9.82484
▁serve	-9.8249
▁presence	-9.82548
▁leave	-9.82564
▁Native	-9.82576
▁looks	-9.8261
▁output	-9.82704
▁treated	-9.82791
▁UN	-9.82816
▁Both	-9.829
▁achieve	-9.82908
▁killed	-9.82935
▁core	-9.8299
end	-9.83046
▁Land	-9.8307
▁computers	-9.8317
▁23	-9.83289
▁Like	-9.83346
▁balance	-9.83392
▁stem	-9.83398
о	-9.83518
▁price	-9.83524
▁allowed	-9.83608
ы	-9.83647
▁glass	-9.83679
▁tax	-9.83828
▁5.	-9.83835
▁hour	-9.83838
▁brown	-9.83855
▁classes	-9.83933
ación	-9.83981
▁injury	-9.84002
▁battle	-9.84064
▁happen	-9.84146
▁surrounding	-9.84296
mente	-9.84317
related	-9.84343
▁sample	-9.8442
▁Carolina	-9.84486
▁flight	-9.8452
lin	-9.84524
▁previously	-9.84616
▁foot	-9.84673
▁plastic	-9.84691
▁Foundation	-9.84693
ci	-9.84726
▁salt	-9.84784
ción	-9.84825
▁millions	-9.84903
▁anyone	-9.84917
▁target	-9.84931
▁fight	-9.84967
▁forests	-9.85026
▁Law	-9.85119
▁resulting	-9.85142
▁und	-9.85188
м	-9.85238
ada	-9.85312
▁foreign	-9.85315
▁extreme	-9.85345
▁eggs	-9.8537
mp	-9.8539
▁ship	-9.8544
▁increases	-9.85446
▁Google	-9.85464
▁homes	-9.85467
▁detailed	-9.85486
▁describes	-9.85537
vi	-9.85568
▁Henry	-9.85628
▁2000	-9.85643
▁yourself	-9.857
nt	-9.85705
▁deaths	-9.85709
▁fine	-9.85733
za	-9.8586
▁host	-9.8595
▁box	-9.85967
way	-9.85974
▁Early	-9.86024
▁observed	-9.86047
▁vaccine	-9.86106
▁motion	-9.8616
▁visible	-9.86256
▁da	-9.86403
▁Ca	-9.86414
▁dead	-9.86448
rd	-9.86459
▁Sa	-9.86522
▁respect	-9.86564
pe	-9.86581
▁intended	-9.86593
▁input	-9.86633
▁draw	-9.86873
▁operations	-9.86891
▁religion	-9.86901
▁turned	-9.87059
▁capacity	-9.87086
use	-9.87228
▁agricultural	-9.87236
▁eastern	-9.87308
▁setting	-9.87308
▁concern	-9.87399
▁opportunities	-9.87433
ise	-9.87449
▁snow	-9.87451
off	-9.87648
tra	-9.87692
▁liquid	-9.87694
tu	-9.87706
▁decade	-9.87743
▁feature	-9.8776
mi	-9.87898
▁drinking	-9.879
▁enter	-9.87908
ham	-9.8795
▁recorded	-9.87951
▁physics	-9.8798
▁massive	-9.87984
)|	-9.8802
▁vast	-9.88043
▁divided	-9.8806
▁helped	-9.88111
▁promote	-9.8812
▁letters	-9.88127
op	-9.88168
▁flat	-9.88328
ng	-9.88367
▁novel	-9.88429
▁poverty	-9.88483
▁par	-9.88516
▁Per	-9.88531
▁landscape	-9.88621
▁track	-9.88791
▁greatest	-9.8881
au	-9.88819
▁independent	-9.88841
ray	-9.8889
▁broad	-9.88895
▁engine	-9.88958
▁ages	-9.89077
▁puede	-9.89174
▁Its	-9.89191
▁interested	-9.89235
▁exposed	-9.89358
▁Ohio	-9.89372
▁Jews	-9.89395
▁characters	-9.89474
▁Nations	-9.89598
▁storage	-9.89602
▁programming	-9.89717
▁organizations	-9.89754
▁vegetables	-9.89826
▁super	-9.89872
▁Pro	-9.89978
▁inches	-9.89979
▁screen	-9.89984
▁conflict	-9.90054
▁discuss	-9.90059
▁Make	-9.90076
▁double	-9.90093
▁hundred	-9.90103
bo	-9.90209
▁Southern	-9.90275
▁corn	-9.90291
▁forward	-9.90296
▁continued	-9.90316
▁tips	-9.90419
back	-9.90466
▁sand	-9.90491
▁officials	-9.9055
▁dogs	-9.90619
▁remove	-9.90668
▁easier	-9.90777
▁introduction	-9.90782
▁Federal	-9.90796
▁played	-9.90819
▁showing	-9.90843
▁grown	-9.90852
▁units	-9.90921
ron	-9.90956
▁documents	-9.91029
▁morning	-9.91049
▁Bible	-9.91076
if	-9.91082
▁mainly	-9.91138
▁crops	-9.91138
▁happens	-9.91198
▁Los	-9.91204
▁signal	-9.91336
ities	-9.91405
▁assessment	-9.91408
▁amounts	-9.91409
▁¿	-9.91441
▁initial	-9.91456
▁largely	-9.91467
▁operating	-9.9158
▁farmers	-9.91638
▁options	-9.91732
▁performed	-9.9181
▁satellite	-9.91834
▁component	-9.91977
▁Army	-9.9204
▁curriculum	-9.92061
▁Israel	-9.92079
▁colleagues	-9.92126
tor	-9.9213
▁greenhouse	-9.92175
▁Every	-9.92303
ze	-9.92327
20	-9.92336
va	-9.92396
▁Well	-9.92456
▁instance	-9.92582
▁efficient	-9.92583
▁expression	-9.9264
▁park	-9.92657
▁des	-9.92667
▁collected	-9.92698
▁1990	-9.92699
▁violence	-9.92765
▁2006	-9.92834
▁clinical	-9.92841
▁sustainable	-9.92847
mon	-9.92856
▁apply	-9.92859
▁round	-9.92889
▁Yet	-9.92924
▁Mary	-9.93014
▁decided	-9.93047
▁court	-9.93139
▁Note	-9.93246
oc	-9.93252
▁cm	-9.93277
ger	-9.93287
▁sexual	-9.93302
▁significantly	-9.93385
▁Time	-9.93437
▁2005	-9.93472
▁freedom	-9.93491
▁connected	-9.93523
▁Studies	-9.93528
▁farm	-9.93577
▁Office	-9.93579
ning	-9.93687
▁failure	-9.93695
▁king	-9.93698
▁labor	-9.93753
▁actions	-9.93771
▁spend	-9.93781
▁title	-9.93877
▁leaders	-9.93878
▁pieces	-9.93959
▁Encyclopedia	-9.93973
▁practical	-9.94017
▁leader	-9.94079
40	-9.94085
▁childhood	-9.94206
▁email	-9.94234
ja	-9.94237
▁attempt	-9.94303
▁wanted	-9.94304
▁cat	-9.94314
▁youth	-9.9436
▁Rights	-9.94378
▁beautiful	-9.94443
▁stone	-9.94498
▁resistance	-9.94505
▁Court	-9.94513
ile	-9.94557
▁rain	-9.94582
▁Lo	-9.94585
▁electronic	-9.9459
▁floor	-9.94694
▁sin	-9.94712
▁reducing	-9.94734
▁experiences	-9.94735
▁connection	-9.94778
▁sounds	-9.94842
▁Another	-9.94877
mer	-9.95009
▁Valley	-9.95018
▁Common	-9.95026
▁surgery	-9.95028
▁career	-9.9507
▁hearing	-9.95099
▁comprehensive	-9.95114
field	-9.95158
▁determined	-9.95197
▁format	-9.95215
▁brief	-9.95259
▁26	-9.95276
▁proposed	-9.95286
▁citizens	-9.95314
▁county	-9.9532
▁mountain	-9.95395
▁taught	-9.9543
▁reality	-9.95506
▁stand	-9.9554
▁phone	-9.95568
▁formation	-9.95629
▁decisions	-9.95646
▁requirements	-9.95655
▁pregnancy	-9.95796
▁increasingly	-9.95844
`	-9.9588
her	-9.9591
▁occurred	-9.9594
▁hit	-9.95941
▁motor	-9.96052
▁reaction	-9.96075
▁infected	-9.96093
й	-9.96141
▁crop	-9.96148
▁vehicle	-9.96178
▁cool	-9.96189
les	-9.96205
▁typical	-9.96245
▁Moon	-9.96253
ab	-9.96256
▁strength	-9.96277
▁explains	-9.96295
▁bar	-9.96357
▁Ho	-9.96467
q	-9.96517
▁limit	-9.96538
▁fluid	-9.96545
▁internal	-9.96559
▁Russian	-9.96582
▁ear	-9.96635
▁aid	-9.96669
▁camera	-9.96773
▁80	-9.96774
▁kinds	-9.96959
50	-9.96972
▁processing	-9.97023
ft	-9.97057
19	-9.97073
▁edition	-9.97187
▁dioxide	-9.97209
▁ball	-9.9721
▁recognized	-9.97219
▁facts	-9.97246
▁refer	-9.97262
▁```	-9.9738
▁Post	-9.97423
▁helping	-9.97505
▁Power	-9.97509
▁completed	-9.97572
▁rapidly	-9.97581
▁Laboratory	-9.97637
vo	-9.97643
▁containing	-9.97664
▁looked	-9.97667
▁focused	-9.978
▁seeds	-9.97826
▁emergency	-9.97827
▁Who	-9.97856
▁Mark	-9.97894
▁fear	-9.97913
ya	-9.97923
▁sex	-9.97952
▁fossil	-9.97998
▁Northern	-9.98058
▁studying	-9.98121
▁View	-9.98138
▁relative	-9.9815
和	-9.98158
▁faster	-9.98181
▁residents	-9.98188
▁efficiency	-9.98199
▁ca	-9.98202
▁depending	-9.98206
▁vitamin	-9.98215
▁opening	-9.98236
▁generate	-9.98297
()	-9.98301
▁colors	-9.98358
▁bright	-9.98396
▁combined	-9.98406
▁girls	-9.98408
▁Ne	-9.98462
▁perfect	-9.98474
▁raised	-9.98488
▁awareness	-9.98512
net	-9.98708
▁technical	-9.98711
-1	-9.98746
▁ideal	-9.98752
▁continues	-9.98777
▁28	-9.98784
▁2003	-9.98854
▁portion	-9.98877
▁authors	-9.99034
fer	-9.99041
▁Christ	-9.9908
▁prepare	-9.99206
ping	-9.99247
25	-9.99283
▁obesity	-9.99358
▁Canadian	-9.99414
▁threat	-9.99415
▁rural	-9.99509
ible	-9.99553
let	-9.99611
ana	-9.9976
ING	-9.99762
▁constant	-9.99778
ko	-9.9985
ide	-9.99917
sa	-9.99936
▁concerns	-9.9994
▁credit	-9.9997
▁Chapter	-10.0002
▁indicate	-10.0015
ure	-10.0017
н	-10.0021
▁purposes	-10.0035
▁moment	-10.0043
▁Group	-10.0057
▁specifically	-10.0065
▁seed	-10.0068
▁aware	-10.007
▁met	-10.0078
▁Where	-10.0083
▁waves	-10.0084
▁gets	-10.0085
▁tradition	-10.0085
▁Atlantic	-10.0085
all	-10.0087
▁scientist	-10.0089
▁Republic	-10.0091
▁maps	-10.0096
▁joint	-10.0098
ative	-10.0099
hi	-10.0101
▁walk	-10.0101
▁founded	-10.0103
▁enjoy	-10.0105
▁27	-10.0105
▁Egypt	-10.0105
▁derived	-10.0126
▁pictures	-10.0126
▁laboratory	-10.0134
▁soft	-10.0136
ius	-10.0138
▁giant	-10.0143
red	-10.0152
▁press	-10.0156
▁thin	-10.0166
▁organisms	-10.0168
▁diverse	-10.017
▁operation	-10.0178
▁send	-10.0181
▁Richard	-10.0186
▁vital	-10.0187
▁reached	-10.0189
▁Second	-10.0192
▁properly	-10.0195
▁normally	-10.0196
▁bones	-10.0196
▁represents	-10.0197
▁Agency	-10.0198
д	-10.02
▁contribute	-10.0203
itis	-10.0215
▁immediately	-10.0217
▁external	-10.0219
▁app	-10.0222
▁block	-10.0226
▁du	-10.0231
ster	-10.0231
ach	-10.0233
mm	-10.0245
▁historic	-10.0246
▁charge	-10.025
▁measured	-10.0257
▁principal	-10.026
▁appearance	-10.0265
▁claim	-10.0265
▁transport	-10.0271
▁station	-10.0278
▁Windows	-10.0284
▁Have	-10.029
▁debate	-10.0291
▁diagnosis	-10.0298
▁Type	-10.0299
▁2001	-10.0304
▁enhance	-10.0311
▁string	-10.0312
▁prior	-10.0312
▁nine	-10.033
▁lessons	-10.0332
▁symbol	-10.0334
▁abuse	-10.0334
▁contrast	-10.0344
Re	-10.0346
▁insects	-10.0349
▁attacks	-10.035
▁storm	-10.0356
▁truth	-10.0356
▁Management	-10.0363
%	-10.0367
▁closely	-10.0369
30	-10.0375
bar	-10.0387
▁agriculture	-10.0388
80	-10.0389
▁Heritage	-10.0398
▁Jan	-10.04
▁Michael	-10.0412
▁detect	-10.0415
▁potentially	-10.0418
▁suffer	-10.0421
▁Pass	-10.0422
▁toxic	-10.0422
▁announced	-10.0428
")	-10.043
.|	-10.0431
▁onto	-10.0439
▁policies	-10.044
▁Academy	-10.0445
▁roots	-10.0446
ов	-10.045
pt	-10.0452
▁liver	-10.0462
▁proteins	-10.0462
▁description	-10.0464
▁coastal	-10.0466
▁friend	-10.0467
▁ready	-10.0469
▁accurate	-10.0475
▁Good	-10.0488
▁watch	-10.0489
▁pet	-10.0492
▁relevant	-10.0497
ns	-10.0505
12	-10.0505
▁magnetic	-10.0507
▁village	-10.0511
wa	-10.0511
▁aircraft	-10.052
▁survive	-10.0521
▁Peter	-10.0521
▁slightly	-10.0522
▁Di	-10.0522
▁rapid	-10.0528
▁Environment	-10.0529
sen	-10.0531
▁Survey	-10.0533
▁biology	-10.0534
▁substance	-10.0536
▁Commission	-10.0539
ship	-10.0545
can	-10.0552
▁Plan	-10.0553
▁Under	-10.0556
▁Es	-10.0558
▁impacts	-10.056
▁architecture	-10.0565
▁·	-10.0566
▁tropical	-10.0571
▁parent	-10.0572
▁edge	-10.0572
▁Get	-10.0573
、	-10.0578
▁HTML	-10.058
▁nations	-10.058
▁Long	-10.0586
▁Sciences	-10.0587
▁MD	-10.059
▁molecules	-10.0598
▁experienced	-10.0614
▁relationships	-10.0614
▁existence	-10.0615
▁narrow	-10.0617
▁playing	-10.0618
▁Search	-10.0618
▁dust	-10.0618
ver	-10.0622
▁campaign	-10.0632
▁(1	-10.0637
▁stream	-10.0646
▁vary	-10.0648
▁removed	-10.0648
ho	-10.0648
▁spacecraft	-10.0649
▁Catholic	-10.0651
▁rivers	-10.0652
▁solve	-10.0659
▁Photo	-10.0664
▁2,	-10.0667
istic	-10.067
▁gender	-10.0673
▁launched	-10.0676
▁List	-10.0677
▁bill	-10.0682
▁clearly	-10.069
lic	-10.0693
▁Lord	-10.0694
▁Change	-10.0694
ig	-10.0696
▁speak	-10.0719
▁tested	-10.0724
▁copy	-10.0725
▁tail	-10.073
▁expect	-10.0732
▁Martin	-10.0741
▁chief	-10.0744
▁Online	-10.0751
▁phase	-10.0753
▁district	-10.0757
▁injuries	-10.0759
▁Child	-10.0764
▁smoke	-10.0767
▁70	-10.0767
▁tasks	-10.077
cha	-10.0772
▁Despite	-10.0777
ud	-10.0778
▁Wildlife	-10.0779
▁Conservation	-10.078
▁mathematics	-10.079
▁prepared	-10.0794
tri	-10.0798
▁BC	-10.0799
▁window	-10.08
▁unknown	-10.0804
▁improved	-10.0816
▁samples	-10.0817
▁fit	-10.0818
▁encourage	-10.0821
▁Page	-10.0824
▁whom	-10.083
▁variable	-10.0831
▁import	-10.0832
▁lab	-10.0833
▁participants	-10.0833
▁consequences	-10.0835
▁Monday	-10.0836
▁Pa	-10.0845
▁Report	-10.0852
▁fly	-10.0854
▁mo	-10.0855
▁border	-10.0856
▁muscles	-10.0861
▁wave	-10.0866
▁crisis	-10.087
в	-10.0876
▁sequence	-10.0884
▁Those	-10.0886
▁answers	-10.0891
▁manner	-10.0893
▁frequency	-10.0896
▁orbit	-10.0901
▁Back	-10.0903
pre	-10.0912
▁Brown	-10.0915
▁peace	-10.0918
▁Russia	-10.0919
▁der	-10.0921
▁diagnosed	-10.0922
▁appeared	-10.0927
▁Age	-10.0928
▁у	-10.093
▁Rome	-10.0951
▁fruits	-10.0953
▁domestic	-10.0953
ED	-10.0953
▁depends	-10.0959
ification	-10.0963
▁follows	-10.0979
▁Dec	-10.0982
▁2002	-10.0984
▁babies	-10.0992
car	-10.0993
▁covers	-10.0998
▁party	-10.1008
▁selected	-10.101
▁risks	-10.101
board	-10.1011
▁300	-10.1013
▁voice	-10.1023
▁producing	-10.1027
▁kept	-10.1027
ez	-10.103
▁recommended	-10.1031
▁Star	-10.1036
▁listed	-10.104
▁worth	-10.105
▁examine	-10.1051
▁mobile	-10.1052
▁Among	-10.1052
▁experiments	-10.1053
▁pretty	-10.1064
▁extensive	-10.1065
▁Three	-10.1071
▁prices	-10.1074
▁engines	-10.1074
▁Mr	-10.1077
▁diversity	-10.108
ey	-10.1085
▁figures	-10.1098
▁Eastern	-10.1098
▁artificial	-10.1104
▁meant	-10.1106
ability	-10.111
▁Chicago	-10.1114
▁extent	-10.1115
▁index	-10.1118
▁ver	-10.1123
water	-10.1125
free	-10.1139
▁sort	-10.1144
ville	-10.1157
▁stroke	-10.1172
▁Review	-10.1178
ю	-10.1184
▁effectively	-10.1188
ck	-10.119
▁Spain	-10.1193
▁prevention	-10.1202
▁decline	-10.1205
▁Joseph	-10.1207
▁Math	-10.1211
▁capable	-10.1213
▁Prevention	-10.1215
ix	-10.1219
▁instrument	-10.1234
▁2004	-10.1237
▁concerned	-10.1249
not	-10.125
▁Italy	-10.1251
▁raise	-10.1251
ell	-10.1252
ek	-10.1253
gi	-10.1254
▁server	-10.1259
che	-10.1271
▁nutrients	-10.1285
▁{	-10.1298
▁Family	-10.1304
▁saying	-10.1306
▁Big	-10.1307
▁regarding	-10.1312
▁fever	-10.1321
▁Take	-10.1321
▁recognize	-10.1329
▁buy	-10.1329
▁procedure	-10.1336
▁Du	-10.1344
▁quick	-10.1348
ors	-10.1355
▁selection	-10.1359
▁sets	-10.1361
▁90	-10.1362
▁lies	-10.1369
head	-10.1374
▁finally	-10.1383
▁otherwise	-10.1384
port	-10.1384
▁Italian	-10.1384
▁talking	-10.1386
▁couple	-10.1386
▁jobs	-10.1391
ator	-10.1392
▁Sp	-10.1393
▁Ireland	-10.1393
▁select	-10.1399
▁perspective	-10.1413
▁sides	-10.1414
▁organized	-10.1419
▁revealed	-10.1419
▁earliest	-10.142
▁subjects	-10.142
▁allowing	-10.142
▁Administration	-10.1422
▁doctors	-10.1422
▁honor	-10.1424
▁protected	-10.1427
▁launch	-10.1432
▁`	-10.1433
▁distinct	-10.1434
▁walls	-10.1436
▁noted	-10.1439
▁solutions	-10.1444
▁institutions	-10.1444
which	-10.1452
▁Constitution	-10.1456
▁valuable	-10.1465
▁composition	-10.1466
▁Design	-10.1466
▁survival	-10.1467
▁Ver	-10.1479
▁Thus	-10.1485
▁researcher	-10.1493
▁Michigan	-10.1494
mar	-10.1494
▁readers	-10.1495
▁naturally	-10.1497
▁Source	-10.1498
▁Year	-10.1499
▁Though	-10.1501
our	-10.1503
▁define	-10.1508
▁respond	-10.1509
▁shared	-10.1511
res	-10.1515
▁Instead	-10.1517
▁framework	-10.1527
▁guidelines	-10.153
▁1970	-10.1531
▁reflect	-10.1535
fe	-10.1541
▁count	-10.1542
▁feeling	-10.1543
▁internet	-10.1544
▁islands	-10.1548
▁forced	-10.1548
▁bi	-10.1554
ino	-10.1555
▁emotional	-10.1556
&	-10.1558
т	-10.156
over	-10.1571
ological	-10.1572
▁tube	-10.1581
▁Friday	-10.1581
▁periods	-10.1592
si	-10.1595
▁agency	-10.1596
но	-10.16
▁band	-10.1604
▁adopted	-10.1609
▁drought	-10.1618
known	-10.1624
▁1980	-10.1625
▁legs	-10.1629
▁array	-10.1629
scale	-10.1637
▁1960	-10.1638
▁rising	-10.164
▁Dis	-10.1642
▁regional	-10.1643
▁fill	-10.1646
▁drink	-10.1651
called	-10.1654
▁monitoring	-10.1655
▁District	-10.1655
▁о	-10.1657
▁controlled	-10.1657
▁journey	-10.1663
ong	-10.1668
▁happened	-10.167
▁Only	-10.1672
▁Li	-10.1673
▁generated	-10.1674
▁Such	-10.1674
▁excellent	-10.1677
▁Tuesday	-10.1679
▁army	-10.1681
▁Te	-10.1686
▁hospital	-10.1687
▁nor	-10.1688
▁manage	-10.1693
л	-10.1693
▁renewable	-10.1694
▁cars	-10.1694
▁communicate	-10.1697
▁supported	-10.1701
▁Forest	-10.1707
▁traffic	-10.1708
▁agencies	-10.1708
▁Gulf	-10.171
▁vessels	-10.1713
▁Ar	-10.1717
▁drawing	-10.1718
▁marked	-10.1722
▁Through	-10.1726
▁offered	-10.1727
▁suggested	-10.1729
▁transfer	-10.1731
▁facilities	-10.1733
▁Century	-10.1735
▁thick	-10.1736
▁discussed	-10.1738
▁IN	-10.1739
▁vehicles	-10.1745
▁Para	-10.1749
▁driving	-10.1752
▁Mac	-10.1753
▁tells	-10.1755
▁Paris	-10.1756
▁philosophy	-10.1759
▁filled	-10.1768
▁Published	-10.177
▁leads	-10.177
▁card	-10.1774
▁conventional	-10.1774
▁Lincoln	-10.1777
▁soldiers	-10.178
▁harm	-10.1783
▁Fort	-10.1791
▁stored	-10.1794
▁stands	-10.1794
▁Ko	-10.1797
▁AND	-10.1798
▁advantage	-10.18
idad	-10.1803
▁lay	-10.1808
▁за	-10.1808
▁remained	-10.1823
▁approaches	-10.1827
-18	-10.1831
▁Inc	-10.1845
▁returned	-10.1851
▁despite	-10.1851
▁Georgia	-10.1852
▁taste	-10.1855
▁interactive	-10.1858
▁Arctic	-10.1862
▁cloud	-10.1863
my	-10.1872
ea	-10.1875
▁detail	-10.1879
▁drop	-10.1881
wood	-10.1881
▁waters	-10.1882
▁oldest	-10.1886
ring	-10.1892
▁keeping	-10.1894
▁straight	-10.1896
▁produces	-10.1898
▁Python	-10.1909
▁shall	-10.191
▁except	-10.1912
▁meters	-10.1914
▁biggest	-10.1917
▁artist	-10.1921
▁(2	-10.1921
▁grew	-10.1921
ised	-10.1931
▁Bill	-10.1938
▁nutrition	-10.1941
▁Po	-10.1941
▁sentence	-10.1942
▁fair	-10.1947
▁hydrogen	-10.1947
▁arm	-10.1953
▁strategy	-10.1954
▁medium	-10.1956
▁Colorado	-10.1957
▁leaf	-10.1958
▁Wednesday	-10.1959
▁advice	-10.196
side	-10.1969
ow	-10.1993
ido	-10.1993
▁remote	-10.1997
▁twice	-10.1997
▁lung	-10.1999
Q	-10.2
king	-10.2006
ff	-10.2006
▁29	-10.2012
▁Safety	-10.2014
▁Empire	-10.2018
yl	-10.2021
▁Network	-10.2022
American	-10.2026
▁conduct	-10.2028
▁(1)	-10.2028
14	-10.2048
▁egg	-10.2049
ries	-10.2052
с	-10.2052
▁nerve	-10.2054
▁pair	-10.2057
▁trans	-10.2062
▁Posted	-10.2072
tin	-10.2073
▁horse	-10.2074
60	-10.208
ura	-10.2083
▁USA	-10.2084
▁Copyright	-10.2094
▁Company	-10.2096
▁thousand	-10.2099
▁argument	-10.2102
▁entre	-10.2104
г	-10.2108
▁Solar	-10.2109
27	-10.2113
▁mis	-10.212
70	-10.2125
fish	-10.2128
▁joined	-10.2135
▁Hospital	-10.2137
▁trip	-10.2138
ical	-10.2139
▁pounds	-10.2139
lan	-10.2139
▁35	-10.2141
tes	-10.2146
▁Bio	-10.2147
▁signals	-10.2152
ot	-10.2152
▁Royal	-10.2158
▁mark	-10.2165
.1	-10.217
▁calls	-10.2174
▁widespread	-10.218
▁Ra	-10.2181
osis	-10.2185
▁equivalent	-10.2194
ES	-10.2195
▁painting	-10.2195
▁sp	-10.2196
▁entry	-10.2204
▁500	-10.2204
▁Fair	-10.2205
▁explained	-10.2221
000	-10.2224
▁camp	-10.2224
▁instruction	-10.2226
▁establish	-10.2234
▁Java	-10.2236
▁creative	-10.2238
gar	-10.2238
▁cultures	-10.2238
▁Ten	-10.2238
▁tri	-10.2242
iv	-10.2243
▁instruments	-10.2245
▁treatments	-10.225
▁household	-10.2252
▁cognitive	-10.2254
▁conference	-10.2257
▁Introduction	-10.226
▁expert	-10.2263
▁Men	-10.227
▁kill	-10.2271
▁disaster	-10.2273
▁lose	-10.2276
jo	-10.2277
ward	-10.2278
▁rocks	-10.2286
▁planets	-10.2287
▁reduction	-10.2287
▁predict	-10.2288
▁moral	-10.229
▁opened	-10.229
▁Street	-10.229
▁discover	-10.229
▁column	-10.2292
х	-10.2294
▁Thursday	-10.2299
▁Sometimes	-10.23
work	-10.2304
▁tried	-10.2304
▁leaving	-10.2306
▁cholesterol	-10.2307
ble	-10.2316
▁sports	-10.2321
▁foundation	-10.2322
28	-10.2323
▁download	-10.2325
▁asthma	-10.2331
▁tall	-10.2333
▁situations	-10.2335
ón	-10.2336
▁wife	-10.2341
▁essay	-10.2345
▁Ge	-10.2349
▁handle	-10.2351
level	-10.2355
▁nearby	-10.2356
15	-10.2357
▁exact	-10.2358
▁resolution	-10.2366
▁spot	-10.2366
▁Smith	-10.2368
▁Organization	-10.2369
▁transportation	-10.2378
▁viruses	-10.2378
▁aren	-10.2385
▁sum	-10.2385
▁stomach	-10.2387
lu	-10.2391
▁formal	-10.2392
ria	-10.2396
▁arms	-10.2398
▁Ta	-10.2401
▁lake	-10.2402
▁song	-10.2404
ai	-10.2404
▁Soviet	-10.2406
▁vi	-10.2411
▁Massachusetts	-10.2413
▁sight	-10.2413
▁starts	-10.2414
?"	-10.242
▁mathematical	-10.2423
▁composed	-10.2424
▁1)	-10.2427
▁university	-10.2428
bi	-10.2434
▁wear	-10.2435
▁maximum	-10.2436
▁Help	-10.2443
ren	-10.2448
▁Am	-10.2451
▁acres	-10.2454
26	-10.2457
ase	-10.2464
▁Image	-10.2479
▁Kingdom	-10.2489
▁Sch	-10.2494
▁trial	-10.2496
▁identity	-10.2501
▁possibly	-10.2503
AL	-10.2507
▁focuses	-10.2511
▁pick	-10.2511
▁bank	-10.2513
▁presentation	-10.2513
▁monitor	-10.2514
▁Pennsylvania	-10.2523
▁successfully	-10.2523
▁sheet	-10.2526
ny	-10.2532
▁hole	-10.2545
▁exchange	-10.2548
▁estimates	-10.2549
▁les	-10.255
▁arrived	-10.2555
▁Up	-10.2556
ST	-10.2557
▁museum	-10.2561
▁Ben	-10.2562
▁$1	-10.2563
▁bear	-10.2564
▁Bo	-10.2569
▁error	-10.2574
▁Por	-10.2578
ick	-10.2581
▁felt	-10.259
▁circle	-10.2595
uk	-10.2597
▁Tu	-10.2602
▁unusual	-10.2605
▁Wikipedia	-10.2614
▁crucial	-10.2617
▁explanation	-10.262
▁obtained	-10.2624
▁supplies	-10.2624
▁implement	-10.2625
▁train	-10.2627
dy	-10.2628
▁Asian	-10.2632
▁plus	-10.2635
hr	-10.2639
▁observations	-10.2641
ens	-10.2641
▁marriage	-10.2657
What	-10.2667
▁option	-10.2669
▁Su	-10.2669
▁Sunday	-10.2669
▁AI	-10.2677
▁Bank	-10.2678
ee	-10.2678
11	-10.2683
17	-10.2683
▁opposite	-10.2683
ane	-10.2684
▁seek	-10.2688
▁port	-10.269
▁publication	-10.269
▁hay	-10.2691
▁networks	-10.2692
▁touch	-10.2697
▁Times	-10.2698
▁characterized	-10.2701
$	-10.2702
32	-10.2702
▁broken	-10.2702
▁apart	-10.2713
▁ones	-10.2714
▁Plant	-10.2715
▁Protection	-10.2716
▁harmful	-10.2716
▁Board	-10.2716
ть	-10.2718
▁sobre	-10.2718
▁density	-10.2724
▁agree	-10.2725
р	-10.2727
▁claims	-10.2727
▁join	-10.2729
▁molecular	-10.2729
▁nose	-10.2729
▁TV	-10.2734
▁Alzheimer	-10.2735
▁blog	-10.2737
▁adding	-10.2741
▁Ma	-10.2745
mb	-10.2753
well	-10.2754
▁dedicated	-10.2754
90	-10.2756
▁movements	-10.2762
▁Ab	-10.2765
▁Special	-10.2765
▁helpful	-10.2768
▁Fire	-10.2771
▁turns	-10.2774
▁po	-10.2778
ran	-10.2779
▁certainly	-10.2784
▁Any	-10.2787
®	-10.2789
▁earthquake	-10.2792
▁smoking	-10.2794
▁Work	-10.2797
long	-10.2799
▁exhibit	-10.2799
▁Hall	-10.2801
▁statistics	-10.2803
\	-10.2811
▁150	-10.2814
▁understood	-10.2815
▁noise	-10.282
▁master	-10.2826
▁stock	-10.2828
▁gases	-10.283
▁closer	-10.2831
ants	-10.2835
▁procedures	-10.2836
bit	-10.2847
13	-10.2855
▁principle	-10.2856
▁chain	-10.286
▁belief	-10.2862
fa	-10.2866
▁replace	-10.2869
-3	-10.2874
▁entirely	-10.2876
qui	-10.2876
▁authority	-10.2881
▁Linux	-10.2881
ven	-10.2881
▁sold	-10.2882
▁Reading	-10.2883
▁Heart	-10.2883
▁Engineering	-10.2894
▁reader	-10.2896
▁younger	-10.2898
▁что	-10.29
▁television	-10.2901
▁Battle	-10.2901
AP	-10.2904
par	-10.2904
▁branch	-10.2907
▁suffering	-10.2907
▁virtual	-10.291
ita	-10.2911
▁depend	-10.2912
ped	-10.2913
cer	-10.2918
▁1:	-10.2919
▁represented	-10.292
form	-10.2925
▁literacy	-10.2927
▁parallel	-10.2934
▁Pe	-10.2941
▁zone	-10.2942
▁daughter	-10.2947
▁ring	-10.2947
ula	-10.2952
-12	-10.2954
▁Boston	-10.2957
▁Sub	-10.2959
▁knew	-10.2961
ions	-10.2962
▁dance	-10.2966
but	-10.2973
ified	-10.2976
▁organs	-10.298
▁expensive	-10.299
▁Does	-10.2994
▁1997	-10.2995
▁1999	-10.2996
▁colour	-10.3004
▁choices	-10.3005
▁Director	-10.3009
▁mentioned	-10.301
▁oral	-10.3014
▁plate	-10.3016
▁chemistry	-10.3017
▁depth	-10.3019
▁organ	-10.3024
▁neck	-10.3025
▁Community	-10.303
▁roughly	-10.3031
▁mice	-10.3031
▁estimate	-10.3032
▁transmission	-10.3038
US	-10.3039
▁slowly	-10.304
▁secondary	-10.3041
▁cutting	-10.3042
IC	-10.3042
▁everyday	-10.3047
▁na	-10.3048
▁artists	-10.3052
▁attached	-10.3052
ap	-10.3061
▁twenty	-10.3069
▁Computer	-10.3073
▁Louis	-10.3079
▁endangered	-10.308
▁Bar	-10.3082
▁stages	-10.3083
▁Therefore	-10.3084
▁Services	-10.3091
▁Revolution	-10.3092
▁вы	-10.3095
▁evolved	-10.3095
▁favorite	-10.3095
▁ratio	-10.3095
▁Zealand	-10.3098
▁justice	-10.3101
▁leg	-10.3102
▁lifestyle	-10.3105
▁governments	-10.3106
24	-10.3109
▁department	-10.3111
▁Christmas	-10.3111
▁capture	-10.3114
iz	-10.3114
gu	-10.3115
▁persons	-10.3119
▁views	-10.3125
▁responsibility	-10.3127
ki	-10.3128
▁issued	-10.3128
century	-10.3129
▁psychology	-10.3131
▁permanent	-10.3132
▁Marine	-10.3134
▁Key	-10.3134
▁Building	-10.3136
▁plays	-10.3137
▁faith	-10.314
ably	-10.3141
▁territory	-10.3142
▁tea	-10.3143
▁inner	-10.3143
▁indicates	-10.3146
▁im	-10.315
▁Young	-10.3155
era	-10.3163
hu	-10.3167
▁u	-10.317
▁Next	-10.317
▁Indians	-10.3171
house	-10.3172
such	-10.318
▁concentration	-10.3182
▁intelligence	-10.3188
▁em	-10.3195
▁presents	-10.3195
▁autism	-10.3198
cher	-10.3199
▁Cor	-10.32
▁speaking	-10.3204
▁Ro	-10.3207
▁budget	-10.3208
▁desert	-10.3211
▁Irish	-10.3215
▁Ad	-10.3216
▁ne	-10.3219
ph	-10.3223
▁involving	-10.3223
▁assistant	-10.3226
▁Lu	-10.3228
▁Illinois	-10.3233
▁mild	-10.3238
▁fewer	-10.324
mit	-10.3241
▁Agriculture	-10.3242
▁environments	-10.325
▁assess	-10.3253
▁centre	-10.3255
▁engineers	-10.3257
▁improving	-10.3259
▁III	-10.327
▁cards	-10.3273
▁sensitive	-10.3278
▁angle	-10.3279
18	-10.328
▁medications	-10.3281
▁flag	-10.3282
ata	-10.3288
▁plane	-10.3293
▁ma	-10.3295
▁wealth	-10.3297
▁fourth	-10.3308
▁greatly	-10.3313
▁peak	-10.3315
▁houses	-10.3324
ker	-10.3325
▁machines	-10.3331
▁est	-10.3337
▁flower	-10.3339
▁prove	-10.3344
▁decide	-10.3348
▁involve	-10.3349
▁Light	-10.335
▁grass	-10.3353
▁31	-10.3354
▁notice	-10.3356
▁substances	-10.336
rich	-10.3363
▁locations	-10.3365
▁mountains	-10.3374
▁accepted	-10.3375
ou	-10.3378
▁scene	-10.3378
▁destroyed	-10.3382
od	-10.3383
tz	-10.3383
▁Kids	-10.3386
kin	-10.3391
▁secret	-10.3396
▁Description	-10.3398
▁associate	-10.3401
▁minimum	-10.3406
05	-10.341
▁Unfortunately	-10.3413
▁Care	-10.3414
▁sector	-10.3414
▁assist	-10.3416
▁connect	-10.3425
▁captured	-10.3425
▁Word	-10.3434
▁obvious	-10.3435
▁compounds	-10.3436
▁exploration	-10.344
▁Did	-10.3442
▁steel	-10.3443
▁runs	-10.3447
▁writer	-10.3454
▁worse	-10.3454
top	-10.3459
log	-10.3461
ip	-10.3463
▁Anti	-10.3465
▁Da	-10.3469
▁Committee	-10.3473
▁Will	-10.3476
2)	-10.3478
▁arts	-10.3478
ov	-10.3487
ч	-10.3487
▁musical	-10.3489
▁Vi	-10.349
set	-10.3491
▁walking	-10.3491
-2	-10.3495
▁enable	-10.3496
▁senior	-10.3497
▁formula	-10.3499
▁к	-10.3499
▁trouble	-10.3505
▁combat	-10.3508
▁accounts	-10.3511
▁players	-10.3514
▁Minnesota	-10.3516
▁purchase	-10.3521
▁Islands	-10.3524
▁usage	-10.3525
▁consumers	-10.3527
▁implementation	-10.3536
▁Edward	-10.3536
▁Mer	-10.3548
▁sections	-10.3549
36	-10.3552
▁entered	-10.3556
▁Check	-10.3557
ía	-10.3569
chi	-10.3572
▁competition	-10.3572
▁com	-10.3572
▁holiday	-10.3573
▁Blue	-10.3575
▁closed	-10.3579
ice	-10.358
▁phenomenon	-10.3584
du	-10.3585
▁aspect	-10.3588
▁feeding	-10.3594
▁modified	-10.3595
▁diameter	-10.3598
ob	-10.3602
▁Mississippi	-10.3603
▁Harvard	-10.3607
▁aim	-10.3608
▁finished	-10.3616
▁mechanism	-10.3617
▁6.	-10.3623
▁1950	-10.3625
▁Species	-10.3626
▁anxiety	-10.3626
▁habits	-10.3628
▁extended	-10.3631
▁Division	-10.3633
▁cats	-10.3638
▁evaluate	-10.364
▁Obama	-10.3641
▁Alaska	-10.3644
▁Scotland	-10.3644
▁grid	-10.3645
▁ships	-10.3646
▁tons	-10.3648
▁Fish	-10.3649
▁kidney	-10.3652
▁Sir	-10.3655
ians	-10.3657
▁32	-10.3663
▁courses	-10.3663
▁contained	-10.3667
▁constructed	-10.3673
▁Ex	-10.3675
▁theories	-10.368
▁mechanical	-10.3682
▁mode	-10.3683
▁zero	-10.3688
45	-10.3688
▁prefer	-10.3689
▁verb	-10.3691
dis	-10.3692
▁independence	-10.3693
▁Hill	-10.3702
▁struggle	-10.3703
▁collect	-10.3704
mos	-10.3705
▁imp	-10.3707
▁inflammation	-10.371
▁Pan	-10.3712
▁Test	-10.3713
▁fishing	-10.3715
▁Table	-10.372
▁generations	-10.3721
ва	-10.3723
aw	-10.3731
▁Centre	-10.3745
ā	-10.3745
▁45	-10.3747
nic	-10.3749
з	-10.3766
▁instructions	-10.3773
▁drawn	-10.3773
▁sweet	-10.3777
▁4,	-10.3777
tr	-10.3778
▁(2)	-10.3778
▁brother	-10.3779
shaped	-10.3785
▁interact	-10.3787
35	-10.3788
hand	-10.3788
▁tooth	-10.3804
▁vote	-10.3809
▁demonstrate	-10.3817
▁Ch	-10.3825
▁impossible	-10.3831
cal	-10.3832
▁engage	-10.3837
▁participate	-10.3838
eg	-10.384
▁layers	-10.3844
▁von	-10.3845
▁audio	-10.3848
act	-10.3852
▁circuit	-10.3862
▁wine	-10.3864
ID	-10.3868
▁manufacturing	-10.387
▁computing	-10.3876
▁remaining	-10.3876
zo	-10.3878
09	-10.3883
▁regularly	-10.3892
▁Chi	-10.3896
▁tissues	-10.3898
ella	-10.3899
▁Ka	-10.3899
▁preparation	-10.3901
▁breeding	-10.3902
je	-10.3906
▁expand	-10.3907
pi	-10.3916
PA	-10.3921
▁shot	-10.3922
ка	-10.3925
▁Reference	-10.3926
16	-10.3929
▁trained	-10.393
name	-10.3932
▁exists	-10.3934
pro	-10.3935
▁battery	-10.3937
▁cu	-10.3937
▁ethnic	-10.3941
▁kilometers	-10.3943
AS	-10.3944
tal	-10.3949
▁creatures	-10.3951
▁boys	-10.3952
▁behaviour	-10.3953
▁skill	-10.3958
▁blocks	-10.3963
▁photos	-10.3966
ins	-10.3969
▁Edition	-10.3974
▁rarely	-10.3977
▁funding	-10.3978
▁cord	-10.3985
ag	-10.3988
▁route	-10.3989
▁percentage	-10.3992
▁mm	-10.3992
▁Station	-10.3994
▁paid	-10.3996
▁transition	-10.4006
▁rose	-10.4012
bin	-10.4013
▁Standards	-10.4016
▁Definition	-10.4019
▁newly	-10.4021
ular	-10.4022
▁legislation	-10.4022
▁obtain	-10.4022
pp	-10.4024
▁collaboration	-10.4025
▁achieved	-10.4026
▁division	-10.4027
wing	-10.4028
▁serving	-10.4029
▁Missouri	-10.4032
▁reactions	-10.4037
▁categories	-10.4042
▁Field	-10.4045
▁debt	-10.4046
▁lands	-10.4056
▁infrastructure	-10.4057
▁PM	-10.406
▁creates	-10.4062
▁burning	-10.4068
▁Francisco	-10.4068
▁accuracy	-10.4068
▁recommend	-10.4069
29	-10.407
▁difficulty	-10.4071
▁revolution	-10.4073
part	-10.4074
light	-10.4076
▁professionals	-10.4077
▁bed	-10.4081
▁analyze	-10.4088
▁catch	-10.4091
▁advance	-10.4093
uff	-10.4095
▁dates	-10.4102
▁updated	-10.4103
▁decrease	-10.4105
▁ecosystems	-10.4113
MS	-10.4116
ет	-10.4117
▁Several	-10.4119
▁doubt	-10.4119
▁marks	-10.4121
▁chosen	-10.4121
berg	-10.4122
▁immediate	-10.4127
▁dramatic	-10.4137
▁Sal	-10.4138
ero	-10.4143
▁aims	-10.4144
▁settlement	-10.4144
▁pe	-10.4149
ji	-10.415
To	-10.4155
▁managed	-10.4159
▁overview	-10.4166
▁facing	-10.4169
к	-10.4174
▁Tri	-10.4185
illa	-10.4188
▁secure	-10.4189
from	-10.4191
▁routine	-10.4193
▁calories	-10.4195
▁AD	-10.4195
▁teens	-10.4201
ris	-10.4202
▁Queen	-10.4206
34	-10.4207
▁seeing	-10.4209
foot	-10.4213
▁Saint	-10.4215
▁objective	-10.4217
▁branches	-10.4217
▁1996	-10.422
55	-10.422
▁Mount	-10.4221
75	-10.4222
▁Coast	-10.4231
ae	-10.4237
▁mixed	-10.4238
▁crew	-10.424
▁lots	-10.4241
▁shapes	-10.4241
48	-10.4241
▁Modern	-10.4247
▁Point	-10.4252
don	-10.4252
▁Biology	-10.4252
▁seat	-10.4254
▁fiber	-10.4256
▁vulnerable	-10.4258
▁interface	-10.4262
▁Oregon	-10.4263
▁examination	-10.4269
▁sus	-10.4275
▁Yes	-10.428
▁Start	-10.4283
▁variables	-10.4283
▁intake	-10.4284
▁visitors	-10.4287
▁underlying	-10.4289
▁gone	-10.4292
▁orange	-10.4293
cy	-10.4298
▁married	-10.4305
ub	-10.4307
▁Nov	-10.431
▁limits	-10.4313
point	-10.4317
▁photographs	-10.4327
▁printed	-10.4327
▁politics	-10.433
ever	-10.4332
▁AIDS	-10.4334
▁pp	-10.4335
▁outer	-10.4335
▁thanks	-10.4337
#	-10.4337
ки	-10.4338
ik	-10.4339
with	-10.434
▁educators	-10.434
▁hardware	-10.4341
If	-10.4352
▁replaced	-10.4358
▁bridge	-10.4364
▁interaction	-10.4365
sch	-10.4366
▁examined	-10.4369
born	-10.4372
▁3,	-10.4377
lar	-10.438
08	-10.438
▁}	-10.4383
▁prominent	-10.4387
▁measurement	-10.4392
▁covering	-10.4395
▁signed	-10.4396
▁1930	-10.4397
▁frequent	-10.4402
▁minor	-10.4403
▁genome	-10.4404
▁troops	-10.4407
▁Historical	-10.4407
▁insulin	-10.441
▁Arizona	-10.4412
▁fell	-10.4414
ned	-10.4415
▁turning	-10.4416
▁lungs	-10.4417
▁Oct	-10.442
▁origins	-10.4428
▁Name	-10.4428
▁1995	-10.4431
07	-10.4431
▁counter	-10.4432
▁Ni	-10.4437
▁acts	-10.4441
▁administration	-10.4448
▁pin	-10.4449
▁exhibition	-10.4449
ú	-10.4451
ans	-10.4453
▁breathing	-10.4453
▁fighting	-10.4459
ida	-10.4459
▁tract	-10.446
ay	-10.4463
ой	-10.4463
▁quantum	-10.4474
▁pregnant	-10.4474
▁preserve	-10.4476
▁intellectual	-10.4481
ct	-10.4485
▁mining	-10.4485
▁pa	-10.4486
▁holds	-10.4492
key	-10.4496
▁partner	-10.4496
▁mineral	-10.4499
▁raw	-10.4507
CO	-10.4512
▁screening	-10.4513
▁boy	-10.4514
ла	-10.4515
int	-10.4518
▁crime	-10.4518
▁Bi	-10.4519
▁panel	-10.4522
▁mammals	-10.4523
ec	-10.453
▁wish	-10.4537
▁elected	-10.454
▁carefully	-10.4543
án	-10.455
▁warning	-10.4551
▁suitable	-10.4552
▁contemporary	-10.4552
▁calcium	-10.4557
22	-10.4557
▁nervous	-10.4558
▁sick	-10.4558
making	-10.4561
▁»	-10.4567
ом	-10.4571
:00	-10.4572
vis	-10.4573
tive	-10.4576
▁Inter	-10.4577
▁zu	-10.458
▁gap	-10.4582
also	-10.4585
▁measuring	-10.4587
▁Hebrew	-10.4587
ign	-10.4597
▁Little	-10.4598
▁Va	-10.4601
war	-10.4602
▁measurements	-10.4606
▁Creek	-10.4614
hen	-10.4616
▁coffee	-10.4616
▁fairly	-10.4618
▁Force	-10.4619
▁audience	-10.462
ose	-10.4621
There	-10.4623
▁Number	-10.4631
low	-10.4633
▁frame	-10.4633
▁recovery	-10.464
▁latter	-10.464
▁genus	-10.4641
▁recognition	-10.4641
▁convert	-10.4643
▁mar	-10.4643
▁request	-10.4646
▁damaged	-10.4648
▁threatened	-10.4653
▁random	-10.4658
▁standing	-10.4663
▁Area	-10.4665
▁destruction	-10.4667
是	-10.4667
ging	-10.467
▁phrase	-10.4672
▁compound	-10.4674
▁feelings	-10.4674
00	-10.4675
▁EPA	-10.468
▁Th	-10.4682
val	-10.4684
▁Dutch	-10.4685
▁province	-10.4687
▁galaxy	-10.469
▁poly	-10.4691
nes	-10.4692
▁businesses	-10.4695
▁unless	-10.4695
▁gravity	-10.4699
▁failed	-10.47
▁log	-10.4702
▁compare	-10.4703
▁grant	-10.4705
▁str	-10.4712
▁biodiversity	-10.4714
ь	-10.4715
▁poem	-10.4716
more	-10.4716
▁robot	-10.4719
▁assistance	-10.4719
text	-10.4722
▁Week	-10.4726
▁paint	-10.4728
▁atoms	-10.4729
▁player	-10.4729
▁disabilities	-10.4733
▁passage	-10.4735
▁400	-10.4739
01	-10.474
▁ill	-10.4743
▁evaluation	-10.4751
▁tumor	-10.4753
ug	-10.4755
▁net	-10.4756
▁Article	-10.4756
31	-10.4757
ons	-10.4757
ola	-10.4758
▁mix	-10.4759
ches	-10.476
@	-10.4763
▁fixed	-10.4764
▁nano	-10.4766
▁holding	-10.4768
▁reserved	-10.4769
ena	-10.4769
ding	-10.477
▁investigate	-10.4773
▁Har	-10.4774
▁ab	-10.4776
▁button	-10.478
▁Mexican	-10.4787
▁1,000	-10.4789
▁celebrated	-10.479
▁Media	-10.4794
▁interests	-10.481
▁load	-10.4811
37	-10.4813
▁comments	-10.4815
▁Model	-10.4819
▁rice	-10.482
▁distributed	-10.4821
▁somewhat	-10.4824
▁messages	-10.4826
▁smooth	-10.4828
ш	-10.483
▁significance	-10.4833
▁calendar	-10.4835
▁fo	-10.4837
▁movie	-10.4839
▁stuff	-10.484
▁pot	-10.4847
▁classic	-10.4847
▁amazing	-10.4848
▁opinion	-10.4848
▁declared	-10.4848
▁occurring	-10.4855
▁cap	-10.4857
book	-10.4857
▁door	-10.4858
▁installed	-10.486
▁imaging	-10.4863
▁supports	-10.4864
▁quarter	-10.4867
▁regulations	-10.4868
▁flows	-10.4873
▁silver	-10.4874
▁sharp	-10.4875
▁disk	-10.4879
▁Bureau	-10.4879
▁insect	-10.4881
▁election	-10.4882
▁farming	-10.4883
▁pueden	-10.4885
▁Microsoft	-10.4886
▁behaviors	-10.4889
▁offering	-10.4893
▁police	-10.4893
tar	-10.4895
▁PC	-10.4898
sp	-10.49
▁Security	-10.49
▁Access	-10.4903
▁item	-10.4903
▁Small	-10.4904
▁spectrum	-10.491
tain	-10.4913
▁finds	-10.4916
▁Keep	-10.4916
▁integrated	-10.4922
▁elementary	-10.4927
▁resulted	-10.493
▁goods	-10.4934
▁ch	-10.4941
▁necessarily	-10.4945
▁slavery	-10.4945
▁infants	-10.495
▁leadership	-10.495
▁grows	-10.4952
02	-10.4954
▁Section	-10.4954
38	-10.4955
▁breath	-10.4956
▁habitats	-10.4957
▁reveal	-10.4958
33	-10.4962
▁shell	-10.4963
right	-10.4963
▁express	-10.4965
▁cattle	-10.4967
▁trend	-10.4968
▁hormone	-10.4973
▁males	-10.4973
▁implications	-10.4986
sion	-10.4988
▁Teaching	-10.4991
▁Volume	-10.4994
▁Statistics	-10.4995
▁consumer	-10.4996
▁Brazil	-10.4997
▁accessible	-10.4998
▁Santa	-10.5
▁grain	-10.5001
39	-10.5003
matic	-10.5004
▁Ti	-10.5008
▁dollars	-10.5009
03	-10.5014
▁2)	-10.5017
▁ranging	-10.5024
▁Ask	-10.5024
OS	-10.5025
▁unable	-10.5027
▁truly	-10.5029
▁facility	-10.5031
47	-10.5033
▁Feb	-10.5034
▁vocabulary	-10.5035
▁В	-10.5035
▁Print	-10.5043
▁shift	-10.5046
▁Fa	-10.5049
▁spending	-10.505
▁steam	-10.505
▁minerals	-10.5051
▁Ancient	-10.5052
▁influenced	-10.5053
▁Add	-10.5054
▁TO	-10.5056
▁Col	-10.5062
▁repair	-10.5066
▁stable	-10.5067
▁ultimately	-10.507
▁danger	-10.5074
ж	-10.5075
py	-10.5078
bu	-10.5082
▁wonder	-10.5087
▁Trans	-10.5088
▁papers	-10.5091
▁match	-10.5099
64	-10.5099
▁stated	-10.5103
▁deliver	-10.5104
You	-10.511
▁den	-10.511
ev	-10.5112
▁expansion	-10.5114
▁influenza	-10.5114
▁psychological	-10.5115
▁expressed	-10.5115
▁(3	-10.5116
▁ongoing	-10.5116
▁Conference	-10.5118
ual	-10.5122
des	-10.5127
▁spiritual	-10.513
ney	-10.5132
▁Kansas	-10.5137
▁Che	-10.5139
▁Map	-10.5143
▁concrete	-10.5146
mes	-10.5149
21	-10.5153
**	-10.5154
ить	-10.5154
▁pop	-10.5155
down	-10.5156
▁relations	-10.5164
An	-10.5165
▁minute	-10.5166
▁escape	-10.5166
▁beliefs	-10.5168
▁acids	-10.5168
▁defense	-10.517
▁Ga	-10.5177
ros	-10.5183
▁bo	-10.5184
▁AM	-10.519
▁remarkable	-10.5191
▁settled	-10.5191
▁functional	-10.5193
▁cast	-10.5194
▁auto	-10.5197
▁holes	-10.52
▁Arts	-10.52
▁Johnson	-10.5205
ps	-10.5206
▁script	-10.5212
▁respiratory	-10.5215
▁lakes	-10.5216
ica	-10.5216
that	-10.5219
▁particle	-10.522
▁Lab	-10.5224
04	-10.5224
▁putting	-10.5234
▁sunlight	-10.5237
▁brings	-10.5243
▁relation	-10.5244
▁Music	-10.5247
▁demonstrated	-10.5253
▁ob	-10.5256
ли	-10.5259
▁wasn	-10.5262
▁Index	-10.5262
▁realize	-10.5262
▁enormous	-10.5264
▁emphasis	-10.5267
ations	-10.5269
▁anniversary	-10.5272
▁ahead	-10.5275
▁?	-10.5275
▁j	-10.5278
▁inspired	-10.5283
▁65	-10.5286
有	-10.5286
▁Grand	-10.529
▁victims	-10.5291
▁meal	-10.5292
▁missing	-10.5293
▁burn	-10.5295
▁agreement	-10.5295
▁Convention	-10.5296
▁Ba	-10.5296
▁moves	-10.5299
ue	-10.5299
▁ended	-10.5299
▁Assessment	-10.5303
▁worst	-10.5303
▁asking	-10.5303
are	-10.5309
▁housing	-10.531
▁street	-10.5311
ene	-10.5312
ken	-10.5313
ä	-10.5313
▁celebrate	-10.5316
▁sharing	-10.5318
▁Cross	-10.5323
▁pi	-10.5326
▁fuels	-10.5326
For	-10.5329
▁firm	-10.5329
▁caught	-10.533
▁Mountain	-10.533
▁comparison	-10.5337
ces	-10.5337
▁disc	-10.5338
▁thoughts	-10.5338
▁observe	-10.534
▁sit	-10.5342
▁flying	-10.5342
▁1998	-10.5343
▁ho	-10.5343
▁Code	-10.5343
SP	-10.5344
▁Treatment	-10.535
▁varieties	-10.5351
▁Symptoms	-10.5352
▁mouse	-10.5353
▁mortality	-10.5354
▁false	-10.5362
▁heritage	-10.5362
?”	-10.5365
▁possibility	-10.5371
ем	-10.5373
▁confirmed	-10.5373
ano	-10.5375
AR	-10.5377
▁delivered	-10.5381
▁category	-10.5384
▁indeed	-10.5392
cho	-10.54
▁Tom	-10.54
▁ejemplo	-10.5401
▁experimental	-10.5402
▁fascinating	-10.541
tan	-10.541
mail	-10.5412
▁ecosystem	-10.5412
including	-10.5415
▁semi	-10.5416
▁nitrogen	-10.5416
▁prime	-10.542
ER	-10.5424
▁galaxies	-10.5428
▁beauty	-10.5429
▁chest	-10.5429
▁Maryland	-10.543
cu	-10.5435
ru	-10.5435
▁surprised	-10.5437
▁spoken	-10.5443
▁Unlike	-10.5446
▁centers	-10.5447
▁passing	-10.5454
▁achievement	-10.5457
▁differ	-10.5459
▁Clinical	-10.546
▁detected	-10.5466
06	-10.5468
▁ft	-10.5471
▁ran	-10.5472
gg	-10.5473
▁females	-10.5475
▁Elizabeth	-10.5478
▁extension	-10.5482
▁connections	-10.5482
▁transmitted	-10.5484
▁complicated	-10.5486
▁Standard	-10.5487
▁Wisconsin	-10.5488
▁classical	-10.5489
▁Action	-10.5491
▁operate	-10.5492
▁adapt	-10.5493
▁tip	-10.5496
▁tobacco	-10.55
▁shaped	-10.5501
99	-10.5502
▁authorities	-10.5503
▁1920	-10.5513
▁pr	-10.5515
▁destroy	-10.5519
▁Physics	-10.552
▁для	-10.552
▁platform	-10.552
▁comment	-10.5525
▁graph	-10.5533
▁Par	-10.5542
mann	-10.5552
▁indigenous	-10.5554
▁intense	-10.5555
▁cup	-10.5557
fi	-10.5557
▁videos	-10.5558
▁2012,	-10.5559
▁innovative	-10.556
▁5,	-10.5563
▁migration	-10.5566
▁corner	-10.5569
▁Lee	-10.5569
▁z	-10.557
▁accept	-10.5574
▁1994	-10.5574
und	-10.5574
ese	-10.5576
▁van	-10.5584
▁dynamic	-10.5587
▁Local	-10.5587
▁weak	-10.559
▁streams	-10.5594
▁Low	-10.5599
▁wait	-10.5603
▁PDF	-10.5606
▁está	-10.5607
▁flood	-10.5607
▁Show	-10.5608
▁Ed	-10.5609
23	-10.561
▁chart	-10.5613
▁Holy	-10.5614
ти	-10.5614
ford	-10.5618
▁invented	-10.5619
▁Try	-10.562
▁happy	-10.562
▁wet	-10.5626
▁affecting	-10.5629
▁stick	-10.5635
▁Text	-10.5635
▁carrying	-10.5637
▁clouds	-10.5637
▁Physical	-10.5644
ments	-10.5645
▁glucose	-10.5649
▁ends	-10.5654
▁medication	-10.5655
▁comp	-10.5657
ло	-10.5661
▁strain	-10.5662
▁Navy	-10.5662
▁lie	-10.5664
▁yield	-10.5665
▁racial	-10.5674
▁CD	-10.5676
▁outcomes	-10.5679
85	-10.5682
▁boat	-10.5686
▁cancers	-10.569
▁voltage	-10.5692
▁2010,	-10.5694
▁Policy	-10.5697
rk	-10.5698
▁equation	-10.5701
▁Digital	-10.5706
LE	-10.5708
▁Sin	-10.5711
▁Scientific	-10.5712
▁Vol	-10.5714
▁viewed	-10.5714
▁Much	-10.5715
▁Rock	-10.5716
▁responses	-10.5717
▁про	-10.5718
▁Teachers	-10.5718
▁mixture	-10.5721
▁geo	-10.5722
▁literary	-10.5723
▁Unit	-10.5727
TM	-10.573
tre	-10.573
▁wheat	-10.5735
▁acute	-10.5735
▁Fe	-10.5736
▁Andrew	-10.5736
html	-10.5737
▁при	-10.5745
▁harvest	-10.5747
▁introduce	-10.5748
▁challenging	-10.5751
▁Below	-10.5752
ack	-10.5753
66	-10.5754
▁mechanisms	-10.5758
▁classified	-10.5762
rum	-10.5763
46	-10.5763
▁usual	-10.5764
▁Writing	-10.5765
▁Questions	-10.5765
No	-10.5765
▁как	-10.5767
▁Gen	-10.5769
▁wants	-10.5771
44	-10.5772
▁exciting	-10.5774
cent	-10.5781
get	-10.5784
▁Road	-10.5788
▁acquired	-10.5789
65	-10.5789
▁approved	-10.5794
▁Set	-10.5797
▁1940	-10.5801
ando	-10.5801
▁graduate	-10.5803
▁Without	-10.5803
onic	-10.5805
▁Mass	-10.5806
▁characteristic	-10.5807
▁reform	-10.5811
▁hyper	-10.5813
▁clock	-10.5816
▁Aug	-10.5816
▁forming	-10.582
EP	-10.5826
▁gray	-10.5835
char	-10.5838
▁investment	-10.5839
class	-10.584
dic	-10.5841
▁esta	-10.5844
▁Grade	-10.5844
▁Origin	-10.5847
▁imagine	-10.5852
▁pan	-10.5854
▁bus	-10.5861
▁texts	-10.5864
▁vegetation	-10.5866
▁consume	-10.5867
▁win	-10.5868
▁Large	-10.5868
ade	-10.5868
▁delivery	-10.5869
▁forma	-10.587
▁11,	-10.5873
▁slave	-10.5873
▁universal	-10.5874
▁census	-10.5875
▁newspaper	-10.5878
▁lists	-10.5878
▁Korea	-10.588
▁Oxford	-10.5881
▁row	-10.5881
ets	-10.5885
▁telescope	-10.5885
▁weapons	-10.5886
ery	-10.5887
▁pour	-10.5889
在	-10.5891
▁laser	-10.5893
▁Whether	-10.5895
▁bread	-10.5896
▁aimed	-10.5901
▁employed	-10.5903
▁excess	-10.5904
▁traditions	-10.5904
▁Garden	-10.5906
▁Way	-10.5913
▁interior	-10.5914
▁consistent	-10.5921
▁dream	-10.5924
art	-10.5925
idae	-10.5926
▁smell	-10.5929
ming	-10.5931
▁aged	-10.5931
”.	-10.5931
▁2:	-10.5933
▁essentially	-10.5934
gy	-10.5935
▁coral	-10.594
▁Wa	-10.5941
▁falls	-10.5948
▁polar	-10.5948
▁www	-10.5954
▁inform	-10.5954
▁fabric	-10.5956
▁initiative	-10.5957
86	-10.5957
▁Fund	-10.596
▁gained	-10.5961
ther	-10.5964
▁Ja	-10.5966
▁reveals	-10.5968
▁dictionary	-10.5969
▁continent	-10.5969
▁reliable	-10.597
▁**	-10.5976
▁Wood	-10.5977
▁settings	-10.5979
▁pilot	-10.5981
▁towns	-10.5986
▁Non	-10.599
▁domain	-10.5995
▁interactions	-10.5998
ric	-10.5998
▁trends	-10.6002
▁MS	-10.6004
▁colon	-10.6004
Con	-10.6008
▁cooking	-10.601
▁tumors	-10.601
▁expedition	-10.6013
▁Cha	-10.6013
▁owners	-10.6016
▁Site	-10.6016
▁conversation	-10.6017
▁girl	-10.6017
▁Brain	-10.6018
▁physician	-10.602
49	-10.6029
▁throat	-10.6032
▁slaves	-10.6034
▁install	-10.6039
▁Level	-10.6044
▁pull	-10.6048
▁mine	-10.605
▁Nutrition	-10.6052
air	-10.6053
▁epidemic	-10.6054
▁collections	-10.6056
▁globe	-10.6056
isation	-10.6057
▁Which	-10.6059
oma	-10.606
42	-10.6062
▁maintenance	-10.6064
▁fought	-10.6064
▁scholars	-10.6066
▁Figure	-10.6069
ndo	-10.6076
lets	-10.6078
▁react	-10.6079
uch	-10.6081
▁а	-10.6081
▁attempts	-10.6085
▁infant	-10.6087
▁association	-10.6091
CA	-10.6093
▁algorithm	-10.6093
ute	-10.6093
▁dense	-10.6094
▁favor	-10.6097
▁anywhere	-10.6098
▁cotton	-10.6108
▁End	-10.6109
▁logic	-10.611
tus	-10.6111
▁lens	-10.6111
▁circumstances	-10.6113
lum	-10.6114
uck	-10.6114
▁ecological	-10.6118
▁pero	-10.6118
▁assume	-10.612
▁flash	-10.6124
▁Mc	-10.6126
▁planned	-10.6126
▁Sha	-10.6126
len	-10.613
bra	-10.613
▁Gold	-10.6134
▁partners	-10.6135
▁recommendations	-10.6135
ep	-10.6137
▁preventing	-10.6138
▁copper	-10.6139
box	-10.6141
▁surfaces	-10.6144
▁plain	-10.6147
58	-10.6156
▁EU	-10.6159
▁fi	-10.616
▁absorb	-10.6163
▁Place	-10.6167
▁Educational	-10.6167
▁Look	-10.6168
100	-10.6172
aria	-10.6185
▁Islam	-10.6185
▁bears	-10.6187
▁Archives	-10.6188
▁optical	-10.6189
▁browser	-10.619
▁detection	-10.6191
▁//	-10.6193
▁extend	-10.6201
▁cure	-10.6207
è	-10.6208
▁sa	-10.6209
▁Pi	-10.6209
}	-10.621
▁bringing	-10.621
▁heating	-10.6214
▁supporting	-10.6216
▁Wall	-10.6219
▁sufficient	-10.6221
wi	-10.6222
▁Party	-10.6231
▁Head	-10.6232
▁Wales	-10.6232
▁separated	-10.6236
▁Consider	-10.6237
▁tribes	-10.6237
▁fa	-10.6241
ili	-10.6246
56	-10.625
▁identifying	-10.6255
▁roads	-10.6256
ware	-10.6257
▁Following	-10.6262
▁nest	-10.6263
▁Diabetes	-10.6264
▁excessive	-10.6264
▁Supreme	-10.6265
ari	-10.6267
▁Risk	-10.6267
▁Author	-10.627
▁boost	-10.627
▁laid	-10.6276
▁Student	-10.6277
▁6,	-10.6285
▁planting	-10.6286
▁serves	-10.6292
dor	-10.6293
IA	-10.6295
▁Super	-10.6295
▁strongly	-10.6296
▁session	-10.63
▁oceans	-10.6304
▁sport	-10.6308
▁investigation	-10.6309
ient	-10.631
▁sought	-10.6317
▁rocket	-10.6317
▁criminal	-10.6318
▁mono	-10.6319
43	-10.632
▁Saturday	-10.632
▁rely	-10.6322
▁Port	-10.6322
▁Wild	-10.6325
▁continuous	-10.6327
▁hunting	-10.6339
▁spirit	-10.6342
gov	-10.6345
▁evolutionary	-10.6346
▁technological	-10.635
▁Spring	-10.6355
▁fifth	-10.6359
oid	-10.6362
▁Teacher	-10.6362
▁calculate	-10.6365
▁Minister	-10.6372
▁Culture	-10.6374
IP	-10.6378
▁theme	-10.6379
▁heads	-10.638
▁protecting	-10.6381
▁Create	-10.6382
▁36	-10.6383
▁stations	-10.6384
ites	-10.6384
▁Systems	-10.6385
▁isolated	-10.6386
▁intervention	-10.6388
▁Lesson	-10.6388
ett	-10.6392
▁Sam	-10.6393
▁Often	-10.6402
▁spinal	-10.6404
="	-10.6404
▁Darwin	-10.6405
▁parties	-10.6406
ography	-10.6411
state	-10.6414
RE	-10.6416
^	-10.6419
▁Bur	-10.6419
▁Major	-10.642
ala	-10.642
▁Alexander	-10.6432
1,	-10.6435
▁adapted	-10.6435
▁violent	-10.6435
▁reaching	-10.6437
▁Contact	-10.644
▁push	-10.6442
▁Frank	-10.6446
He	-10.6448
▁addresses	-10.6451
▁Books	-10.6451
▁Video	-10.6463
▁farms	-10.6464
▁divide	-10.6464
▁bound	-10.6465
▁à	-10.6467
▁Mountains	-10.6472
han	-10.6472
▁Hand	-10.6473
▁representation	-10.6474
su	-10.6475
500	-10.6482
▁cluster	-10.6483
▁Daniel	-10.6484
MA	-10.6486
PS	-10.6487
▁lifetime	-10.6491
▁Census	-10.6492
▁Ke	-10.6494
▁receiving	-10.6497
▁linear	-10.6497
▁grades	-10.6504
ture	-10.6504
▁Mu	-10.6507
▁extinction	-10.6507
▁Sure	-10.6507
▁wa	-10.6512
br	-10.6519
▁Understanding	-10.6524
▁Sh	-10.6525
▁specified	-10.653
▁distant	-10.6537
▁magazine	-10.6538
▁Full	-10.6538
▁bigger	-10.654
59	-10.6543
green	-10.6547
▁Er	-10.6548
▁guidance	-10.6551
AD	-10.6552
sky	-10.6554
▁clothing	-10.6557
▁heavily	-10.6557
▁considerable	-10.6558
▁Mon	-10.6559
▁illnesses	-10.656
▁Iowa	-10.6561
▁vol	-10.6562
▁employment	-10.6565
-5	-10.6565
aries	-10.6566
▁landing	-10.6569
▁beneath	-10.6576
▁colony	-10.6577
Article	-10.6579
example	-10.658
▁va	-10.6583
▁Secretary	-10.6586
CC	-10.6587
type	-10.6588
▁seeking	-10.6589
▁vessel	-10.6592
▁cre	-10.6592
▁wings	-10.6593
▁mu	-10.6595
▁literally	-10.6596
▁li	-10.6599
▁fellow	-10.6601
vol	-10.6602
▁hidden	-10.6606
▁suffered	-10.6609
▁bacterial	-10.6609
▁husband	-10.6613
▁seemed	-10.6613
95	-10.6619
made	-10.6625
▁exam	-10.6625
▁watching	-10.6628
▁Historic	-10.6629
▁killing	-10.663
▁Month	-10.6639
▁7.	-10.6639
▁knows	-10.6642
▁antibiotics	-10.6645
now	-10.6646
▁maintaining	-10.6648
om	-10.6648
▁engineer	-10.6651
▁claimed	-10.6652
▁breed	-10.6655
▁Out	-10.6656
▁cada	-10.666
▁underground	-10.6661
TH	-10.6665
▁industries	-10.6667
▁annually	-10.6669
ify	-10.667
▁gathered	-10.6673
▁districts	-10.6674
++	-10.6676
▁improvement	-10.6676
▁proven	-10.6677
▁ingredients	-10.6677
▁commitment	-10.6681
▁Four	-10.6685
▁permission	-10.6685
▁PhD	-10.6691
▁switch	-10.6692
▁eliminate	-10.6697
▁faced	-10.6698
SA	-10.6699
▁split	-10.6702
ü	-10.6702
▁Van	-10.6703
▁Know	-10.6704
▁tank	-10.6705
▁winds	-10.6705
▁urine	-10.6706
▁Download	-10.671
▁Blood	-10.6716
▁trace	-10.6718
▁trials	-10.6721
▁strange	-10.6722
▁regarded	-10.6727
▁participation	-10.6732
▁mention	-10.6734
на	-10.674
▁phones	-10.674
IS	-10.6742
▁Apple	-10.6742
▁dealing	-10.6743
▁Between	-10.6743
▁é	-10.6746
▁Micro	-10.6747
▁prey	-10.6751
▁Mediterranean	-10.6752
▁gather	-10.6752
▁threats	-10.6753
▁ra	-10.6754
▁Fo	-10.6757
▁1900	-10.6758
▁8,	-10.6758
▁horses	-10.6762
▁beneficial	-10.6763
▁writers	-10.6763
▁medieval	-10.6763
▁gr	-10.6763
▁ordinary	-10.6763
▁desire	-10.6764
▁fires	-10.6764
▁rays	-10.6764
▁Clean	-10.6765
▁visited	-10.6767
ole	-10.6768
54	-10.677
bed	-10.677
life	-10.6771
▁plenty	-10.6773
▁spill	-10.6774
▁proof	-10.6777
▁committed	-10.6779
ious	-10.6783
▁Centers	-10.6785
▁assigned	-10.6791
▁expanded	-10.6793
▁printing	-10.6794
▁CDC	-10.6795
▁listen	-10.6795
▁tape	-10.6797
ok	-10.6804
▁colonies	-10.6805
med	-10.6807
ight	-10.6809
▁noun	-10.6811
▁ban	-10.6812
▁communications	-10.6814
▁Watch	-10.6817
▁Bra	-10.6818
▁Scott	-10.6819
▁objectives	-10.6822
▁abnormal	-10.6823
word	-10.6823
▁ya	-10.6828
▁cur	-10.6829
▁begun	-10.6831
▁cooling	-10.6832
▁constantly	-10.6832
▁copyright	-10.6836
▁posted	-10.684
▁Mi	-10.6842
53	-10.6844
▁Drug	-10.6846
IT	-10.6848
▁deadly	-10.6849
▁ancestors	-10.685
▁virtually	-10.6851
▁magnitude	-10.6856
▁Saturn	-10.6858
▁translation	-10.6862
▁craft	-10.6864
▁pen	-10.6865
▁variations	-10.6868
▁surprise	-10.6868
▁ni	-10.6872
gon	-10.6874
▁75	-10.6875
osa	-10.6875
▁wire	-10.6877
67	-10.6881
▁identification	-10.6883
▁Current	-10.6883
▁emerging	-10.6886
▁disability	-10.6889
▁Collection	-10.6891
▁Jefferson	-10.6891
▁pure	-10.6892
▁supposed	-10.6893
str	-10.6895
▁exercises	-10.6898
▁roof	-10.6898
▁module	-10.6899
▁spots	-10.6899
▁summary	-10.69
·	-10.6901
▁2011,	-10.6902
▁Abraham	-10.6902
▁abstract	-10.6903
▁Animal	-10.6904
▁funded	-10.6905
▁mothers	-10.6911
▁vertical	-10.6912
▁Jr	-10.6915
▁atmospheric	-10.6923
▁Hi	-10.6925
▁observation	-10.6926
▁decay	-10.693
▁symbols	-10.6932
▁dental	-10.6932
▁none	-10.6936
▁7,	-10.6941
▁Dan	-10.6944
б	-10.6944
▁kingdom	-10.6946
▁designs	-10.6949
▁implemented	-10.6951
MP	-10.6951
▁poetry	-10.6951
▁colonial	-10.6954
▁Top	-10.6962
▁pairs	-10.6963
▁CA	-10.6964
read	-10.6966
▁Facebook	-10.6967
▁temple	-10.6975
▁Main	-10.6977
▁incidence	-10.6979
hal	-10.698
fin	-10.6982
uc	-10.6982
▁Title	-10.6983
▁qui	-10.6983
▁seconds	-10.6984
▁\	-10.6988
41	-10.6989
▁sell	-10.6991
▁references	-10.6993
mal	-10.6994
▁Cape	-10.6995
▁variation	-10.6999
▁def	-10.7002
▁Webster	-10.7002
▁Economic	-10.7003
▁transform	-10.7006
SC	-10.7007
▁Born	-10.701
▁falling	-10.701
▁guess	-10.7011
▁Wi	-10.7014
▁gradually	-10.7015
▁Mor	-10.7017
ˈ	-10.7017
▁sensor	-10.7017
▁Jackson	-10.7021
â	-10.7023
▁appointed	-10.7024
▁mold	-10.7025
▁Having	-10.7025
▁outbreak	-10.7028
▁displayed	-10.7029
▁Electronic	-10.7032
▁driven	-10.7033
▁Ru	-10.7037
ks	-10.7037
cap	-10.704
▁bat	-10.704
As	-10.7042
▁advances	-10.7042
til	-10.7045
▁Jersey	-10.7046
rick	-10.7048
▁astronomers	-10.7048
▁Prize	-10.705
ii	-10.7055
ball	-10.7062
п	-10.7062
▁fiction	-10.7063
▁granted	-10.7064
▁Far	-10.7067
▁executive	-10.7068
▁opposed	-10.7072
▁Cal	-10.7072
▁trust	-10.7074
ral	-10.7077
▁Jo	-10.7077
▁notion	-10.7078
▁abilities	-10.7078
▁Cambridge	-10.708
▁treating	-10.7084
▁neuro	-10.7085
▁emotions	-10.7089
eb	-10.7091
▁st	-10.7091
lon	-10.7091
▁maintained	-10.7092
▁Schools	-10.7096
▁Philadelphia	-10.7097
▁sensors	-10.7101
▁Com	-10.7102
▁Tra	-10.7107
▁discrimination	-10.7108
▁emerged	-10.7109
AM	-10.711
▁из	-10.7112
▁Based	-10.7112
▁moderate	-10.7112
▁structural	-10.7114
▁RE	-10.7115
▁construct	-10.7117
▁settlers	-10.7121
▁smart	-10.7122
▁ge	-10.7123
▁coverage	-10.7124
▁banks	-10.7125
▁abundant	-10.7126
▁healthcare	-10.7127
UN	-10.7128
▁Greece	-10.7129
▁Bell	-10.7135
▁Within	-10.7136
▁organism	-10.7136
▁Perhaps	-10.7136
▁calling	-10.7137
del	-10.7146
▁Think	-10.7149
rie	-10.7149
▁moisture	-10.7149
▁Angeles	-10.7151
▁batteries	-10.7152
▁Summary	-10.7154
▁Fourth	-10.7158
ette	-10.7164
ux	-10.7165
▁initially	-10.7168
▁buried	-10.7169
▁Stephen	-10.7171
late	-10.7172
า	-10.7175
rio	-10.7177
ties	-10.718
▁Story	-10.7181
-4	-10.7183
▁existed	-10.7184
น	-10.7184
▁dramatically	-10.7196
gan	-10.7199
▁adequate	-10.72
OL	-10.7204
▁tener	-10.7208
▁channel	-10.7209
mus	-10.721
rin	-10.7211
▁fin	-10.7212
▁versions	-10.7214
▁Summer	-10.7216
▁um	-10.7217
▁sacred	-10.7217
▁ve	-10.7218
▁clay	-10.7221
ini	-10.7221
▁criteria	-10.7223
din	-10.7224
▁narrative	-10.7232
▁("	-10.7234
▁libraries	-10.7235
▁Analysis	-10.7236
IN	-10.7236
▁controls	-10.7236
€	-10.7239
ock	-10.7239
-10	-10.7246
▁happening	-10.7246
De	-10.7247
▁spin	-10.7253
▁Cu	-10.7254
-8	-10.7255
ciones	-10.7255
▁substantial	-10.7256
▁vector	-10.726
▁Right	-10.726
▁designated	-10.7268
68	-10.727
▁maybe	-10.7275
▁ta	-10.7276
▁relief	-10.7276
▁writes	-10.7286
▁alive	-10.7289
dimensional	-10.729
▁reign	-10.7295
▁1992	-10.7298
▁windows	-10.7303
ati	-10.7304
▁Class	-10.7304
▁engaged	-10.7307
▁complications	-10.7307
▁Amazon	-10.7309
▁Pakistan	-10.731
pl	-10.731
▁Nobel	-10.7311
▁label	-10.7312
78	-10.7313
RI	-10.7316
▁contents	-10.7321
▁thermal	-10.7325
▁mood	-10.7329
▁boundaries	-10.7331
▁Kentucky	-10.7334
▁Testament	-10.7334
▁reaches	-10.7336
▁Basic	-10.734
▁spine	-10.734
▁dairy	-10.7341
▁stores	-10.7343
▁saved	-10.7345
▁Egyptian	-10.7351
az	-10.7352
ple	-10.7354
▁exploring	-10.7359
▁tutorial	-10.7362
▁invasive	-10.7365
▁schedule	-10.7366
ement	-10.7368
▁faculty	-10.7369
▁fashion	-10.7372
▁counties	-10.7376
▁hacer	-10.7377
▁fatal	-10.7382
▁proved	-10.7384
▁definitions	-10.7386
sized	-10.7386
▁Senate	-10.7386
ologists	-10.739
▁overweight	-10.7397
▁submit	-10.7397
▁Pet	-10.7398
▁subsequent	-10.74
▁agreed	-10.7402
▁dating	-10.7405
▁dependent	-10.7407
▁valley	-10.7409
57	-10.741
▁Temple	-10.7412
79	-10.7413
▁filter	-10.7416
▁Later	-10.7417
],	-10.7418
一	-10.742
NA	-10.7426
pin	-10.7427
▁tough	-10.7427
▁gardens	-10.7428
▁sitting	-10.7429
▁fur	-10.7438
zi	-10.7439
town	-10.7444
▁owner	-10.7445
▁я	-10.7445
▁Sound	-10.7446
▁contributions	-10.745
▁websites	-10.745
▁от	-10.7453
amp	-10.7454
path	-10.7458
ax	-10.7459
▁establishment	-10.7467
▁inhabitants	-10.7471
▁lecture	-10.7472
▁trail	-10.7476
las	-10.7477
▁encouraged	-10.7483
▁wonderful	-10.7489
▁Gar	-10.7489
▁empty	-10.7494
pan	-10.7494
▁storms	-10.7494
Pa	-10.7499
▁grains	-10.7499
▁interpretation	-10.75
▁flexible	-10.7503
▁solving	-10.7503
▁distinctive	-10.7504
▁officially	-10.7506
tis	-10.7507
▁Step	-10.7508
▁faces	-10.7517
▁styles	-10.752
table	-10.752
▁USDA	-10.7523
▁bomb	-10.7523
▁contributed	-10.7524
▁neither	-10.7528
▁livestock	-10.7529
▁algae	-10.7529
cus	-10.7534
▁civilization	-10.7537
▁ga	-10.7539
room	-10.7542
▁recall	-10.7543
▁proportion	-10.7549
69	-10.7551
ju	-10.7552
▁package	-10.7552
▁volcanic	-10.7553
▁concerning	-10.7554
being	-10.7557
▁effectiveness	-10.7558
▁flavor	-10.7558
lam	-10.7562
ни	-10.7563
▁Gas	-10.7564
▁Could	-10.7569
▁employees	-10.757
▁IV	-10.7571
▁automatically	-10.7574
▁programme	-10.7574
▁wheel	-10.7576
▁Need	-10.7578
▁pink	-10.7578
à	-10.7578
▁recycling	-10.7578
▁lighting	-10.7579
▁Jerusalem	-10.7586
▁ed	-10.7586
▁mercury	-10.7589
▁(17	-10.7589
Le	-10.7592
▁cardiovascular	-10.7594
▁Christianity	-10.7596
press	-10.7599
▁importante	-10.7604
▁Alabama	-10.7605
▁14,	-10.7606
▁explores	-10.7608
AC	-10.7609
▁contribution	-10.761
▁conclusion	-10.7611
та	-10.7614
▁Thanks	-10.7615
Be	-10.7616
bel	-10.7617
▁hip	-10.7621
uri	-10.7628
▁agents	-10.7629
▁este	-10.7638
vin	-10.7644
▁workshop	-10.7645
stone	-10.7647
▁originated	-10.7652
encia	-10.7654
▁whatever	-10.7655
▁Tennessee	-10.7658
aka	-10.7664
space	-10.7664
dos	-10.7665
▁deeper	-10.767
▁chi	-10.7674
▁markets	-10.7675
▁electrons	-10.7679
▁jump	-10.7683
ib	-10.7684
▁12,	-10.7684
▁Resource	-10.7686
▁fail	-10.7686
▁Fall	-10.7686
▁wireless	-10.7689
▁lowest	-10.7694
▁brand	-10.7705
▁indicated	-10.7707
▁suit	-10.7707
▁errors	-10.771
▁charged	-10.7717
і	-10.7719
▁Additionally	-10.772
▁bullying	-10.7721
เ	-10.7721
▁Jupiter	-10.7722
▁Muslim	-10.7723
("	-10.7723
▁Working	-10.7724
▁hybrid	-10.7727
▁streets	-10.7728
nal	-10.7732
▁mature	-10.7733
▁noticed	-10.7735
▁shock	-10.7738
▁molecule	-10.7739
▁photograph	-10.7742
▁aging	-10.7743
▁Parents	-10.775
▁discusses	-10.775
▁blind	-10.7753
▁vegetable	-10.7755
▁Short	-10.7755
▁mill	-10.7757
ра	-10.7758
▁listening	-10.7758
▁editing	-10.776
▁lights	-10.7761
▁surrounded	-10.7764
1)	-10.7765
▁ro	-10.7772
▁representing	-10.7774
▁editor	-10.7774
some	-10.7775
▁careful	-10.7776
▁correctly	-10.7778
▁focusing	-10.7779
▁universities	-10.7779
▁1800	-10.7781
▁precise	-10.7782
▁Pope	-10.7786
▁1993	-10.7792
▁invention	-10.7793
▁owned	-10.7796
▁societies	-10.7798
▁Pat	-10.7802
▁dominant	-10.7803
▁21,	-10.7806
▁evening	-10.7807
▁Comp	-10.7807
▁gun	-10.7811
sk	-10.7812
ET	-10.7812
▁Chemical	-10.7812
▁rainfall	-10.7813
▁2009,	-10.7817
school	-10.7819
▁regard	-10.7822
world	-10.7823
▁Call	-10.7829
▁phenomena	-10.7831
meter	-10.7831
▁Subject	-10.7832
▁18,	-10.7832
▁arguments	-10.7833
▁finger	-10.7835
▁Justice	-10.7838
▁33	-10.7839
▁directed	-10.784
▁Shakespeare	-10.784
▁varies	-10.7845
author	-10.7846
▁Utah	-10.7851
▁celebration	-10.7854
▁coat	-10.7855
▁considering	-10.7855
-6	-10.7857
▁IP	-10.7858
▁whereas	-10.7861
▁datos	-10.7866
▁mit	-10.7866
▁DC	-10.7867
uring	-10.7869
▁score	-10.7871
"?	-10.7873
▁Order	-10.7874
▁Louisiana	-10.7875
▁painful	-10.7881
▁Real	-10.7881
▁volunteers	-10.7883
▁apparent	-10.7887
▁rec	-10.7888
▁Course	-10.7888
▁Franklin	-10.7891
▁vaccines	-10.7891
▁powers	-10.7891
▁mile	-10.7892
▁sh	-10.7893
▁3-	-10.7894
▁Ice	-10.7894
▁shallow	-10.7895
ก	-10.7898
▁suggestions	-10.7898
▁Cell	-10.79
▁nutrient	-10.7901
▁desired	-10.7901
▁seasonal	-10.7902
▁controversial	-10.7903
▁sudden	-10.7905
88	-10.7909
▁surprising	-10.7911
▁electron	-10.7912
▁deer	-10.7913
▁converted	-10.7914
▁Industrial	-10.7914
nce	-10.7915
▁Davis	-10.7916
63	-10.7927
ening	-10.7928
▁consisting	-10.7933
▁driver	-10.7934
▁availability	-10.7934
▁atomic	-10.7934
▁consumed	-10.7938
cul	-10.7938
▁consist	-10.7938
▁Trade	-10.794
▁Governor	-10.7942
▁22,	-10.7944
▁Issue	-10.7945
▁obese	-10.7949
▁interpret	-10.7951
▁tongue	-10.7956
▁knowing	-10.7958
▁vs	-10.7959
yn	-10.7959
▁discipline	-10.7961
▁10,000	-10.7964
▁empire	-10.7966
ky	-10.797
▁medicines	-10.7972
▁analyzed	-10.7973
▁paintings	-10.7974
76	-10.7974
▁integral	-10.7976
▁Being	-10.7976
ration	-10.7978
tail	-10.7978
”)	-10.7979
▁insight	-10.7979
▁democracy	-10.7981
▁diagnose	-10.7982
▁apparently	-10.7984
▁fr	-10.7984
▁(4	-10.7984
▁targets	-10.7988
▁FOR	-10.7989
▁developmental	-10.799
▁agent	-10.7994
▁stronger	-10.7994
OR	-10.7997
▁worry	-10.7997
▁panels	-10.7997
▁forget	-10.7998
▁Hay	-10.7999
▁accident	-10.8003
▁tar	-10.8005
▁contract	-10.8005
▁hi	-10.8007
▁bees	-10.801
▁Mission	-10.801
put	-10.801
▁evil	-10.8011
▁1991	-10.8015
▁Vietnam	-10.8016
▁Color	-10.8018
▁committee	-10.8019
▁documented	-10.8022
▁manual	-10.8023
▁jet	-10.8024
unt	-10.8025
list	-10.8025
▁blow	-10.8028
▁Gu	-10.803
▁immigrants	-10.803
▁positions	-10.8035
mat	-10.8041
▁48	-10.8042
▁9,	-10.8045
87	-10.8045
duc	-10.8046
▁Play	-10.8046
▁campus	-10.8047
▁worship	-10.8047
▁funds	-10.8049
▁perception	-10.8049
▁equally	-10.805
sis	-10.805
▁households	-10.805
▁Weather	-10.8052
▁alter	-10.8055
▁spelling	-10.8055
▁Future	-10.806
▁sq	-10.8063
▁Assistant	-10.8063
▁Hol	-10.8063
▁Maine	-10.8065
▁Recent	-10.8066
ен	-10.8067
▁hormones	-10.8067
▁debris	-10.8068
grade	-10.8069
▁Wind	-10.8069
▁«	-10.8071
98	-10.8072
▁specialized	-10.8075
▁examines	-10.8081
▁railroad	-10.8083
ates	-10.8084
▁describing	-10.8084
▁sal	-10.8087
▁argue	-10.8089
ory	-10.8089
▁ourselves	-10.809
dia	-10.809
▁saving	-10.809
▁satellites	-10.8093
▁Support	-10.8093
▁union	-10.8095
▁god	-10.8095
▁15,	-10.8097
▁peer	-10.8097
▁determining	-10.8097
▁Arch	-10.8098
▁Hawaii	-10.8102
▁directions	-10.8107
▁feedback	-10.8108
date	-10.8111
qua	-10.8114
Al	-10.8115
▁default	-10.8115
▁Carbon	-10.8118
89	-10.8118
cing	-10.8121
▁pesticides	-10.8121
▁interview	-10.8123
zu	-10.8124
▁poet	-10.8124
▁infectious	-10.8124
▁distinguished	-10.8125
▁Parliament	-10.8126
▁advantages	-10.8126
▁develops	-10.8128
How	-10.8128
▁soul	-10.8128
▁purchased	-10.8131
▁contaminated	-10.8133
cur	-10.8146
▁Bridge	-10.8149
▁teams	-10.815
▁container	-10.8157
▁reproduction	-10.8157
▁19,	-10.8165
▁learners	-10.8165
▁reporting	-10.8166
▁planted	-10.8166
ear	-10.8168
▁stones	-10.8169
▁intensity	-10.8174
CH	-10.8175
▁taxes	-10.8176
▁Confederate	-10.8177
▁neurons	-10.818
▁tables	-10.8182
cut	-10.8186
▁passes	-10.8191
RA	-10.8191
Do	-10.8194
▁strike	-10.8197
▁alert	-10.8197
▁promise	-10.8199
▁extract	-10.8199
▁occupied	-10.8201
page	-10.8203
ski	-10.8203
▁protective	-10.8205
TE	-10.8206
▁repeated	-10.8208
▁fix	-10.8208
▁dam	-10.8211
ew	-10.8211
▁raising	-10.8212
▁Ku	-10.8213
▁reverse	-10.8213
^2	-10.8214
▁partnership	-10.8219
▁Father	-10.822
ных	-10.8225
▁spoke	-10.8225
▁preparing	-10.8228
▁Camp	-10.823
▁Je	-10.8236
cell	-10.8236
▁Originally	-10.8239
wide	-10.8241
sea	-10.8241
▁reproductive	-10.8242
ö	-10.8244
▁custom	-10.8247
▁Caribbean	-10.8247
▁Indiana	-10.8249
▁encounter	-10.825
▁13,	-10.8253
▁preserved	-10.8256
▁elsewhere	-10.8259
ged	-10.8262
▁dropped	-10.8266
▁fatty	-10.8266
▁pointed	-10.8269
то	-10.8272
▁physically	-10.8272
▁featured	-10.8274
▁Vo	-10.8275
▁Ya	-10.8276
▁continuing	-10.8276
▁Venus	-10.8279
▁Lewis	-10.828
▁officer	-10.8281
▁chair	-10.8282
▁victim	-10.8283
▁hat	-10.8283
ency	-10.8284
non	-10.8284
▁1000	-10.8286
▁collapse	-10.8287
▁chocolate	-10.8288
▁sciences	-10.829
▁illegal	-10.8293
▁recording	-10.8295
▁Core	-10.8296
▁difficulties	-10.8298
▁Radio	-10.83
▁plot	-10.8306
ender	-10.8307
via	-10.8309
▁ru	-10.831
▁humanity	-10.831
ele	-10.831
▁Visual	-10.8316
▁varied	-10.832
▁statements	-10.832
▁removal	-10.8323
▁soils	-10.8325
▁insurance	-10.8328
qu	-10.8331
mor	-10.8333
▁beach	-10.8334
bb	-10.8336
ect	-10.8338
ani	-10.834
▁sur	-10.8342
▁viral	-10.8343
▁merely	-10.8345
▁Publication	-10.8346
▁Bush	-10.8347
▁highlights	-10.8348
▁grammar	-10.8351
▁Depression	-10.8352
▁Reserve	-10.8352
▁Until	-10.8353
▁Five	-10.8353
ม	-10.8355
▁processed	-10.8356
▁17,	-10.8359
73	-10.8362
vert	-10.8363
gra	-10.8363
▁absence	-10.8367
▁assumed	-10.8372
TS	-10.8376
▁%	-10.8376
▁arch	-10.8377
▁Materials	-10.8379
▁Chief	-10.8383
▁gran	-10.8384
▁guard	-10.8389
▁Credit	-10.8389
▁Shi	-10.8389
▁behavioral	-10.8394
▁Planet	-10.8394
▁roles	-10.8396
▁arthritis	-10.8397
▁defines	-10.8397
gas	-10.8397
▁28,	-10.8398
▁accompanied	-10.8398
ан	-10.8401
og	-10.8405
BS	-10.841
▁highlight	-10.8413
▁deposits	-10.8413
EL	-10.8414
▁23,	-10.8417
▁spatial	-10.8419
84	-10.8419
▁founder	-10.8429
▁quantities	-10.8437
▁informed	-10.8437
▁arrival	-10.8438
lay	-10.8439
▁everywhere	-10.8439
igo	-10.8441
▁concentrations	-10.8444
▁rover	-10.8445
los	-10.8449
▁metals	-10.8449
▁Nile	-10.845
Me	-10.8458
▁Diego	-10.8459
▁pose	-10.8461
▁inch	-10.8461
iness	-10.8464
▁scales	-10.8466
▁ti	-10.8467
▁Still	-10.8469
iva	-10.8471
▁Answer	-10.8472
▁grand	-10.8474
La	-10.8474
▁tiempo	-10.8476
▁relating	-10.8478
▁wing	-10.8478
ising	-10.8484
▁ears	-10.8486
▁draft	-10.8487
▁asteroid	-10.849
▁loop	-10.849
▁lunar	-10.849
▁safely	-10.8495
Pro	-10.8502
▁también	-10.8505
▁Kennedy	-10.8506
▁puedes	-10.8507
▁sustainability	-10.851
▁colored	-10.8511
▁sheep	-10.8512
▁governor	-10.8514
gel	-10.8515
▁Remember	-10.8515
▁hydro	-10.8517
▁drivers	-10.8518
▁malaria	-10.8519
har	-10.8521
▁ruled	-10.8527
▁dietary	-10.8529
▁quantity	-10.8529
▁tap	-10.8531
▁pine	-10.8532
▁capabilities	-10.8533
77	-10.8534
▁это	-10.8534
▁ISBN	-10.8539
▁friendly	-10.854
▁exception	-10.854
▁Case	-10.8542
▁probability	-10.8542
▁invasion	-10.8545
▁manager	-10.8546
▁prevalence	-10.8546
Co	-10.8547
▁Grant	-10.8553
▁functioning	-10.8553
▁Islamic	-10.8554
▁performing	-10.8558
▁shed	-10.8558
▁situated	-10.8559
active	-10.8559
See	-10.8559
▁Peace	-10.856
▁innovation	-10.8561
▁enables	-10.8564
▁predicted	-10.8564
▁Cat	-10.8568
▁Assembly	-10.8572
tru	-10.8574
▁classification	-10.8577
▁Ontario	-10.8577
▁cave	-10.8578
▁Mother	-10.8578
51	-10.8579
▁Vitamin	-10.8582
▁uniform	-10.8583
▁Healthy	-10.8586
▁PA	-10.859
▁Write	-10.8592
▁graphics	-10.8595
▁Cur	-10.8596
▁до	-10.8596
▁Bird	-10.86
▁Nazi	-10.8604
▁nice	-10.8605
▁Line	-10.8605
▁mystery	-10.8607
▁bag	-10.861
▁loved	-10.861
!"	-10.8611
▁Jacob	-10.8613
▁MIT	-10.8615
52	-10.8621
▁corresponding	-10.8622
▁whales	-10.8622
▁hurt	-10.863
oo	-10.8632
▁nutritional	-10.8633
mas	-10.8634
lip	-10.8638
▁entering	-10.8642
vent	-10.8644
▁destination	-10.8646
▁Death	-10.8646
▁songs	-10.8647
▁belt	-10.8649
When	-10.8652
72	-10.8662
pur	-10.8662
▁dar	-10.8663
▁matters	-10.8665
8%	-10.8666
▁restore	-10.8666
▁cheap	-10.8666
▁beam	-10.8671
▁struck	-10.8673
ien	-10.8674
▁ethical	-10.8675
▁Ser	-10.8677
▁displays	-10.8677
▁Examples	-10.8679
ст	-10.8682
▁attended	-10.8687
▁tr	-10.8693
96	-10.8697
▁wooden	-10.8699
nia	-10.8699
▁shorter	-10.8702
▁erosion	-10.8704
tation	-10.871
2,	-10.8711
une	-10.8713
▁Region	-10.8716
af	-10.8721
▁genetically	-10.8722
▁losses	-10.8723
ría	-10.8724
gent	-10.8724
▁identical	-10.8725
▁26,	-10.8725
▁theoretical	-10.8727
▁addressed	-10.8727
▁decreased	-10.8731
▁devastating	-10.8733
▁thread	-10.8734
▁Memorial	-10.8741
▁robots	-10.8743
▁scope	-10.8743
▁scores	-10.8747
▁Population	-10.8748
▁ordered	-10.875
vers	-10.8751
ich	-10.8752
SE	-10.8754
▁24,	-10.8757
▁aquatic	-10.8758
▁34	-10.876
▁или	-10.876
▁fl	-10.8761
▁parks	-10.8762
▁foster	-10.8763
▁pool	-10.8764
▁entitled	-10.8766
ara	-10.8767
▁bond	-10.8767
▁Related	-10.8771
▁Son	-10.8772
▁joints	-10.8779
▁cheese	-10.878
hood	-10.8781
▁juice	-10.8783
▁menu	-10.8783
▁copies	-10.8783
▁sister	-10.8784
▁respectively	-10.8792
人	-10.8793
▁deficiency	-10.8795
▁powder	-10.8795
▁accurately	-10.8798
▁confidence	-10.8799
▁Duke	-10.8804
▁2008,	-10.8808
▁palm	-10.8812
▁membrane	-10.8812
▁Tree	-10.8814
▁enemy	-10.8818
els	-10.882
▁gl	-10.8821
им	-10.8823
bre	-10.8824
▁attend	-10.8825
▁Making	-10.8825
▁vida	-10.8826
▁welcome	-10.8827
97	-10.8831
▁Dakota	-10.8835
▁directory	-10.8841
specific	-10.8847
ert	-10.885
▁habit	-10.8851
▁55	-10.8851
▁icon	-10.8854
▁configuration	-10.8854
▁discoveries	-10.8855
▁register	-10.8855
▁protocol	-10.8856
▁tour	-10.8857
▁smallest	-10.8858
▁hazards	-10.8859
▁facilitate	-10.886
▁ease	-10.8864
▁Wilson	-10.8864
▁pack	-10.8866
»	-10.8869
ро	-10.8871
▁historians	-10.8872
▁Telescope	-10.8872
▁Observatory	-10.8874
▁mail	-10.8876
▁$2	-10.8876
ле	-10.8878
▁diagnostic	-10.8878
pet	-10.8878
82	-10.8878
▁complexity	-10.8882
ids	-10.8883
mile	-10.8885
sha	-10.8886
▁ending	-10.8886
5,000	-10.8886
“	-10.8887
▁width	-10.8887
▁extraordinary	-10.8889
chen	-10.8897
▁concluded	-10.8899
▁paragraph	-10.8899
▁Victoria	-10.89
▁Zoo	-10.8901
▁conversion	-10.8902
▁emerge	-10.8902
▁Arab	-10.8909
▁throw	-10.891
▁unlike	-10.8916
▁brush	-10.8916
bus	-10.8917
▁sheets	-10.8918
▁striking	-10.892
▁Berlin	-10.8925
▁scan	-10.8926
▁Flu	-10.8927
▁broke	-10.8933
▁editors	-10.8933
▁personality	-10.8933
▁chip	-10.8934
▁Bre	-10.8943
▁temporary	-10.8943
tur	-10.8945
▁missions	-10.8947
emia	-10.895
▁sodium	-10.8952
▁fu	-10.8955
ram	-10.8955
▁historian	-10.8956
▁imagination	-10.8957
ные	-10.8958
▁manufacturers	-10.8958
▁Master	-10.8958
ista	-10.8961
▁27,	-10.8966
▁altitude	-10.8966
<	-10.8967
ough	-10.8967
我	-10.8968
New	-10.8971
▁25,	-10.898
▁37	-10.8981
▁varying	-10.8985
▁spreading	-10.8987
cker	-10.8987
▁allergies	-10.8988
▁plates	-10.8988
▁Down	-10.8989
▁Editor	-10.899
▁tiene	-10.8991
▁Bu	-10.8995
▁suddenly	-10.8997
▁shore	-10.9001
▁pump	-10.9001
▁Albert	-10.9005
▁Mathematics	-10.9005
▁segment	-10.9005
▁terminal	-10.9005
▁Finally	-10.9006
▁demands	-10.9006
▁Hard	-10.901
zen	-10.9011
▁sentences	-10.9011
km	-10.9012
elle	-10.9012
arm	-10.9012
▁productivity	-10.9013
▁(3)	-10.9015
▁controlling	-10.9018
▁overcome	-10.9019
▁transformation	-10.9027
TA	-10.9029
▁couldn	-10.903
▁relate	-10.9034
{	-10.9035
▁expanding	-10.9036
▁radioactive	-10.9036
▁Emperor	-10.9039
▁Mal	-10.9039
▁bark	-10.9041
▁velocity	-10.9041
▁Simply	-10.9041
▁basically	-10.9043
▁mapping	-10.9043
▁Due	-10.9043
▁exclusively	-10.9049
▁texture	-10.905
▁1945	-10.905
▁returns	-10.9053
7%	-10.9054
▁chances	-10.9057
▁Antarctic	-10.906
lie	-10.906
xi	-10.9064
▁Sweden	-10.9067
▁reduces	-10.9067
▁aggressive	-10.9071
▁Years	-10.9072
ident	-10.9073
▁assembly	-10.9076
tim	-10.9077
▁cha	-10.9079
▁Business	-10.908
▁pas	-10.9082
▁confused	-10.9086
ei	-10.9087
▁typing	-10.9089
▁electronics	-10.9097
▁nineteenth	-10.9099
▁distinction	-10.91
-20	-10.9104
▁resistant	-10.9105
▁RNA	-10.9106
▁tsunami	-10.9107
▁managing	-10.9108
▁hill	-10.9111
▁adolescents	-10.9112
lation	-10.9114
▁(5	-10.9121
▁promoting	-10.9121
▁tribe	-10.9123
▁IT	-10.9124
bert	-10.9126
▁Professional	-10.9128
ре	-10.9128
▁600	-10.9128
▁trigger	-10.913
▁Range	-10.9131
power	-10.9131
▁outcome	-10.9131
tech	-10.9131
▁Tar	-10.9135
▁trauma	-10.9136
▁Advanced	-10.9137
▁breaking	-10.9137
ean	-10.9139
▁macro	-10.9144
▁Should	-10.9148
▁Poland	-10.9148
▁Mill	-10.915
71	-10.9152
▁painted	-10.9153
lt	-10.9153
BC	-10.9156
▁span	-10.9156
▁stopped	-10.9156
▁traits	-10.9158
▁silicon	-10.9158
▁drinks	-10.9158
▁geographic	-10.9159
▁Independence	-10.9162
▁engaging	-10.9162
▁popularity	-10.9162
▁Facts	-10.9162
▁cough	-10.9163
▁Hu	-10.9163
shire	-10.9166
▁Daily	-10.9167
▁fed	-10.9171
▁harder	-10.9172
▁surveys	-10.9175
cast	-10.9177
▁Pen	-10.9177
▁metres	-10.9183
▁traveling	-10.9185
Ma	-10.9185
▁hazardous	-10.9185
▁1989	-10.9186
▁haven	-10.9191
▁Visit	-10.9192
▁occasionally	-10.9193
phy	-10.9194
▁29,	-10.9195
▁Tech	-10.9197
▁institution	-10.9198
ye	-10.92
▁rough	-10.9204
▁wisdom	-10.9205
▁1.5	-10.9205
▁mirror	-10.9206
▁regardless	-10.9208
▁8.	-10.9208
▁boundary	-10.9209
▁Stone	-10.9213
▁combine	-10.9213
▁reflection	-10.9216
▁cleaning	-10.9219
▁Scottish	-10.9222
▁carries	-10.9222
▁minimize	-10.9222
▁attract	-10.9229
ivity	-10.923
▁Des	-10.9234
▁rep	-10.9234
▁Example	-10.9235
ving	-10.9236
▁phrases	-10.9237
▁Christians	-10.9238
▁valid	-10.9239
eo	-10.9242
▁provider	-10.9244
▁Best	-10.9245
▁pets	-10.925
▁traditionally	-10.9251
av	-10.9252
▁chose	-10.9256
▁profile	-10.9258
▁deeply	-10.9258
74	-10.926
▁authoritative	-10.926
▁telling	-10.9261
▁parameters	-10.9264
▁influential	-10.9265
sta	-10.9266
▁Sand	-10.9267
▁Holocaust	-10.9268
ima	-10.9268
▁awarded	-10.927
▁Living	-10.9273
▁Bat	-10.9273
▁operated	-10.9273
▁Overview	-10.9275
ua	-10.9275
hol	-10.9277
bro	-10.9277
sia	-10.9281
ส	-10.9282
▁attitudes	-10.9283
▁Nation	-10.9283
die	-10.9286
▁differently	-10.9286
ри	-10.9287
http	-10.9288
了	-10.9289
iest	-10.9289
▁royal	-10.929
high	-10.9291
▁navigation	-10.9291
▁Indeed	-10.9296
▁Korean	-10.9296
most	-10.9297
▁logical	-10.9297
▁Han	-10.9297
▁devoted	-10.93
▁podría	-10.93
▁client	-10.9302
▁tab	-10.9303
▁possess	-10.9305
▁searching	-10.9305
▁themes	-10.931
lia	-10.931
▁Ki	-10.9311
▁arise	-10.9315
law	-10.9316
▁resist	-10.9316
▁surgical	-10.9319
▁flooding	-10.9321
BA	-10.9321
ban	-10.9321
ique	-10.9322
▁10,	-10.9323
▁gathering	-10.9325
▁bleeding	-10.9326
▁salmon	-10.9331
gin	-10.9332
▁fatigue	-10.9332
▁radi	-10.9334
▁stems	-10.9338
▁sizes	-10.9339
▁knee	-10.9339
▁dimensions	-10.934
about	-10.934
го	-10.9341
▁2,000	-10.9348
vid	-10.9349
▁wake	-10.935
IM	-10.9352
▁Fact	-10.9354
83	-10.9355
▁Cold	-10.9359
file	-10.936
lines	-10.9361
ля	-10.9362
4%	-10.9367
HA	-10.9371
gre	-10.9371
▁Farm	-10.9372
▁outdoor	-10.9374
LA	-10.9375
ologist	-10.9379
▁meals	-10.9379
cor	-10.938
▁pale	-10.9385
▁gland	-10.9386
▁tan	-10.939
▁Samuel	-10.939
ister	-10.9392
▁specimens	-10.9394
▁sophisticated	-10.9398
LO	-10.9398
▁Za	-10.94
▁honey	-10.9402
UR	-10.9402
hn	-10.9405
AIDS	-10.9415
▁Northwest	-10.9416
▁kg	-10.9419
▁cow	-10.9422
test	-10.9424
▁Berkeley	-10.9426
ale	-10.9427
▁crown	-10.9428
fu	-10.9428
▁methane	-10.943
▁priority	-10.9433
▁illustrated	-10.9435
▁Training	-10.9435
▁skull	-10.9436
▁hence	-10.944
▁abundance	-10.9441
▁kitchen	-10.9442
ils	-10.9442
▁Primary	-10.9442
62	-10.9447
By	-10.9448
▁realized	-10.9448
cos	-10.9448
OC	-10.9451
lor	-10.9454
▁Roosevelt	-10.9455
NC	-10.9455
▁stood	-10.9456
▁ride	-10.9457
▁curve	-10.9457
▁bladder	-10.9458
EA	-10.9461
▁Netherlands	-10.9462
▁discharge	-10.9464
oon	-10.9464
▁regulation	-10.9467
cia	-10.9467
▁cook	-10.9471
▁collecting	-10.9472
▁Las	-10.9475
▁Carl	-10.9477
▁Game	-10.9484
▁equality	-10.9485
▁Given	-10.9486
▁meter	-10.9486
▁16,	-10.949
▁extinct	-10.949
▁Agricultural	-10.9492
▁predators	-10.9492
SS	-10.9494
lle	-10.9499
▁adj	-10.9502
6%	-10.9502
▁Hindu	-10.9503
▁sc	-10.9504
▁Plants	-10.9504
▁Corps	-10.9504
EC	-10.9507
▁Ages	-10.9507
▁Apollo	-10.9508
▁ju	-10.9514
▁superior	-10.9516
▁horizontal	-10.9516
▁Tips	-10.9518
▁stability	-10.9519
▁~	-10.9519
van	-10.9521
▁Nu	-10.9523
Mo	-10.9524
▁arc	-10.9524
▁statistical	-10.9525
▁Anne	-10.9526
ados	-10.953
▁Oklahoma	-10.9531
▁victory	-10.9532
▁afford	-10.9533
▁geography	-10.9533
▁op	-10.9535
tter	-10.9536
▁Hurricane	-10.9537
▁Topics	-10.9538
▁burned	-10.954
▁artistic	-10.9541
▁cooperation	-10.9542
borne	-10.9542
hole	-10.9542
▁utility	-10.9543
step	-10.9545
▁freshwater	-10.9548
▁cellular	-10.9548
▁producers	-10.9549
▁volcano	-10.9551
▁modifications	-10.9552
▁Eye	-10.956
▁telephone	-10.9561
▁pipe	-10.9565
▁specialist	-10.9566
▁thirty	-10.9569
▁distinguish	-10.9572
▁Clark	-10.9574
▁Winter	-10.9575
▁thyroid	-10.9576
▁Universe	-10.9579
▁epi	-10.9583
▁100,000	-10.9584
▁brains	-10.9585
▁dose	-10.9587
▁Oil	-10.9587
hard	-10.9587
mic	-10.9589
ama	-10.959
▁Version	-10.9592
print	-10.9593
▁diagram	-10.9594
▁Different	-10.9594
▁adds	-10.9595
▁beans	-10.9596
▁replacement	-10.9596
▁File	-10.9597
▁Quality	-10.96
vel	-10.9601
▁42	-10.9604
▁burden	-10.9606
▁Sur	-10.9608
▁twelve	-10.9609
tle	-10.9609
▁spaces	-10.9612
▁je	-10.9613
▁disasters	-10.9613
▁Turkey	-10.9614
▁keyboard	-10.9614
SL	-10.9615
▁wetlands	-10.9615
▁reflected	-10.9617
▁pest	-10.9618
▁eine	-10.962
ulation	-10.9621
▁dying	-10.9625
cept	-10.9625
EN	-10.9625
▁120	-10.9626
▁Initiative	-10.9627
white	-10.9627
▁password	-10.9628
▁Chemistry	-10.9628
▁translated	-10.9629
▁inherited	-10.9632
▁Trust	-10.9633
how	-10.9633
lands	-10.9637
AT	-10.9641
▁incident	-10.9642
▁appeal	-10.9645
▁min	-10.9646
▁thrive	-10.9646
▁Hispanic	-10.9648
▁Douglas	-10.9649
▁survived	-10.965
▁experiencing	-10.9651
ras	-10.9651
▁occurrence	-10.9657
▁handling	-10.9657
▁Question	-10.9661
▁pu	-10.9662
ís	-10.9666
row	-10.967
▁sacrifice	-10.9671
不	-10.9673
▁Currently	-10.9675
▁Jim	-10.9676
▁bottle	-10.9682
▁Elementary	-10.9682
▁vitamins	-10.9688
▁tele	-10.9688
▁archaeological	-10.9688
▁Lower	-10.9689
▁Bor	-10.9694
▁ozone	-10.9694
▁muy	-10.9695
▁prison	-10.9696
▁Moses	-10.9698
▁representative	-10.97
bble	-10.9705
▁Sept	-10.9706
▁neural	-10.9707
▁ce	-10.9707
▁vaccination	-10.9707
tric	-10.9708
▁comfortable	-10.971
";	-10.9711
▁shade	-10.9712
▁dinosaurs	-10.9712
▁SE	-10.9717
▁tens	-10.9718
▁1913	-10.9718
▁recover	-10.9722
▁convey	-10.9723
gram	-10.9727
▁Town	-10.9728
avi	-10.9729
▁physicians	-10.9731
▁pollutants	-10.9739
▁absolute	-10.9741
▁minister	-10.9741
itu	-10.9742
▁cream	-10.9743
▁SQL	-10.9744
▁(16	-10.9745
▁axis	-10.9749
▁sending	-10.9753
▁Ac	-10.9754
▁Select	-10.9755
▁Nuclear	-10.9755
mark	-10.9755
▁Antarctica	-10.9759
rate	-10.9761
▁Previous	-10.9761
▁información	-10.9761
▁calculated	-10.9762
ved	-10.9762
▁arteries	-10.9762
ages	-10.9764
▁finance	-10.9765
HS	-10.977
▁productive	-10.9774
-17	-10.9776
▁roll	-10.9779
▁graphic	-10.978
61	-10.9783
▁birthday	-10.9785
RC	-10.9787
than	-10.9787
inter	-10.9789
nch	-10.979
oli	-10.979
▁translate	-10.9793
▁250	-10.9795
▁lenguaje	-10.9796
Our	-10.9796
81	-10.9797
▁Francis	-10.9797
▁athletes	-10.9797
▁poisoning	-10.9798
▁generating	-10.9798
friendly	-10.9798
▁Cap	-10.98
IL	-10.9801
▁Kar	-10.9803
▁restoration	-10.9809
▁shelter	-10.9811
bri	-10.9815
cm	-10.9817
ense	-10.9817
▁Games	-10.9818
▁companion	-10.9818
ной	-10.9819
▁discussions	-10.982
nie	-10.9821
▁seriously	-10.9822
▁Rio	-10.9827
▁armed	-10.9827
▁odd	-10.9832
▁forth	-10.9832
▁fraction	-10.9836
▁abandoned	-10.9838
▁Results	-10.984
ей	-10.984
CE	-10.9841
▁neighborhood	-10.9842
▁fingers	-10.9846
▁improvements	-10.9847
▁suicide	-10.9848
▁dr	-10.9856
▁acting	-10.9856
pr	-10.9857
▁dementia	-10.9858
▁waiting	-10.9859
▁extends	-10.986
▁adjacent	-10.9861
das	-10.9864
▁¡	-10.9866
▁consideration	-10.9867
▁fats	-10.987
▁Lawrence	-10.987
▁Jack	-10.9871
▁Hubble	-10.9874
▁Impact	-10.9876
▁Iran	-10.9884
etic	-10.9885
▁regime	-10.9885
▁hopes	-10.9886
▁sperm	-10.9886
▁synthetic	-10.9888
▁atom	-10.9891
▁algorithms	-10.9894
▁cameras	-10.9895
ко	-10.9896
▁readily	-10.9899
▁enzyme	-10.9899
ox	-10.9899
▁Geographic	-10.99
▁golden	-10.9901
▁elderly	-10.9902
▁zones	-10.9903
▁bell	-10.9903
▁1/2	-10.9904
▁stretch	-10.9906
▁Pu	-10.9906
▁FDA	-10.9906
col	-10.9913
flow	-10.9914
PDF	-10.9914
lock	-10.9914
▁swimming	-10.9917
var	-10.9918
▁whale	-10.9918
▁Labor	-10.9918
cat	-10.992
▁alphabet	-10.9922
▁Twitter	-10.9923
93	-10.9923
▁inspiration	-10.9925
▁wider	-10.9928
▁CH	-10.9929
pu	-10.9931
▁alien	-10.9931
▁attractive	-10.9932
▁hypothesis	-10.9932
▁wouldn	-10.9935
▁Mad	-10.9935
▁Extension	-10.994
▁20,	-10.994
▁Was	-10.9945
▁speakers	-10.9947
▁fund	-10.9949
▁OS	-10.995
▁injured	-10.9951
▁confusion	-10.9952
▁irregular	-10.9954
▁repeat	-10.9955
▁Ann	-10.9955
▁attributed	-10.9956
▁manera	-10.9959
▁churches	-10.996
ben	-10.9962
▁Bal	-10.9964
да	-10.9964
SU	-10.9966
▁Bob	-10.9966
gun	-10.9969
▁customers	-10.9973
▁pit	-10.9974
▁opera	-10.9976
▁MA	-10.9977
▁С	-10.9977
▁01	-10.9978
▁Contents	-10.9981
▁sales	-10.9983
▁Articles	-10.9985
eh	-10.9985
They	-10.9989
▁Ger	-10.9989
▁compact	-10.999
▁belong	-10.9992
▁debe	-10.9992
▁reviewed	-10.9993
dar	-10.9994
run	-10.9996
▁fan	-10.9996
▁lu	-10.9996
▁раз	-11.0004
▁prostate	-11.0007
▁tus	-11.0009
▁transmit	-11.0016
ку	-11.0017
ร	-11.0018
ition	-11.002
▁arranged	-11.002
▁rear	-11.0026
:30	-11.0027
ск	-11.0027
iti	-11.0029
▁landmark	-11.0031
ф	-11.0031
].	-11.0034
可以	-11.0043
▁allergic	-11.0044
▁officers	-11.0046
▁consciousness	-11.0053
▁Deep	-11.0055
▁Biological	-11.0055
▁Literature	-11.0059
▁losing	-11.006
▁cash	-11.0066
▁traveled	-11.0066
▁Team	-11.0068
▁influences	-11.0069
▁3:	-11.007
▁rail	-11.007
▁bay	-11.0073
ico	-11.0073
▁Rev	-11.0075
▁incorporated	-11.0076
▁das	-11.0076
▁myth	-11.0078
RO	-11.0079
dent	-11.008
▁succeed	-11.0081
▁contamination	-11.0082
▁impressive	-11.0084
ctor	-11.0086
▁minority	-11.0088
▁diarrhea	-11.0094
rus	-11.0097
Ha	-11.0097
▁Others	-11.0098
▁Indonesia	-11.0098
▁reflects	-11.01
fat	-11.01
▁economics	-11.0102
▁WHO	-11.0104
▁gear	-11.0107
▁susceptible	-11.0108
▁Basin	-11.011
▁chicken	-11.011
▁cuts	-11.0112
▁Prior	-11.0113
▁er	-11.0114
ré	-11.0122
▁confirm	-11.0124
▁motivation	-11.0125
▁Democratic	-11.0126
▁UC	-11.0128
▁ranges	-11.0129
card	-11.013
▁developers	-11.013
▁Val	-11.0131
pen	-11.0131
pers	-11.0132
▁nodes	-11.0134
▁jaw	-11.0134
▁mysterious	-11.0134
▁Diseases	-11.0135
▁edges	-11.0137
▁Country	-11.0137
▁sediment	-11.014
▁rank	-11.0146
▁equations	-11.0147
▁educated	-11.0152
ste	-11.0153
▁illustrate	-11.0153
▁adopt	-11.0157
mu	-11.0158
inch	-11.0162
▁Declaration	-11.0163
▁radar	-11.0169
▁38	-11.0171
ators	-11.0172
▁integration	-11.0173
▁Jones	-11.0173
▁teaches	-11.0178
CP	-11.0181
▁oxide	-11.0181
▁canal	-11.0184
▁earthquakes	-11.0186
▁otros	-11.0186
▁3)	-11.0188
▁murder	-11.0189
▁believes	-11.0189
▁poison	-11.019
▁hospitals	-11.019
▁Mat	-11.0191
▁inventor	-11.0193
▁Paper	-11.0198
▁loose	-11.0203
ми	-11.0205
▁Jean	-11.0206
▁transplant	-11.0209
east	-11.0212
▁NC	-11.0212
▁hide	-11.0212
▁estate	-11.0219
stein	-11.022
chy	-11.0221
▁Welcome	-11.0222
▁ash	-11.0223
▁applying	-11.0228
▁earn	-11.0228
▁pitch	-11.0229
▁removing	-11.0234
Mar	-11.0237
▁ka	-11.0238
she	-11.0238
▁Cy	-11.024
▁contributing	-11.0241
spect	-11.0243
▁Stanford	-11.0248
▁bowl	-11.0248
▁Kenya	-11.0249
2.	-11.0251
▁volunteer	-11.0256
▁Usually	-11.0258
▁watershed	-11.0258
▁explosion	-11.0261
▁Prince	-11.0261
zer	-11.0265
▁mud	-11.0266
▁Mercury	-11.0269
▁candidate	-11.0271
▁commands	-11.0274
▁personnel	-11.0275
▁basin	-11.0277
▁warmer	-11.0278
▁regulate	-11.0279
▁Has	-11.0279
tel	-11.0283
▁Healthwise	-11.0285
▁eaten	-11.0286
NS	-11.0287
▁twentieth	-11.0288
▁Ur	-11.0289
▁digestive	-11.0291
▁Matthew	-11.0299
ō	-11.0299
▁Throughout	-11.0307
fold	-11.0314
▁stimulate	-11.0315
▁defects	-11.0315
▁со	-11.0316
▁explored	-11.0317
!)	-11.0321
▁tro	-11.0323
▁Arthur	-11.0324
gal	-11.0325
▁то	-11.0327
▁pace	-11.0328
▁microscope	-11.0328
▁villages	-11.0328
▁geometry	-11.033
▁mat	-11.0337
▁registered	-11.0338
size	-11.034
▁balloon	-11.034
▁delay	-11.034
▁Der	-11.0342
ать	-11.0343
▁Fi	-11.0345
ire	-11.0345
▁Safe	-11.0347
▁requiring	-11.0348
▁ein	-11.0349
▁accidents	-11.0349
St	-11.0351
▁loud	-11.0351
eth	-11.0353
graph	-11.0353
▁solo	-11.0356
▁lawn	-11.0357
▁vo	-11.0358
cr	-11.0358
▁intelligent	-11.0358
▁Adam	-11.036
▁Dar	-11.0362
▁update	-11.0364
▁sat	-11.0365
ways	-11.0365
▁Series	-11.0366
▁protest	-11.0367
▁manufacture	-11.0368
ios	-11.0369
▁savings	-11.0369
те	-11.0369
AN	-11.0369
▁permit	-11.037
▁purple	-11.037
▁borders	-11.037
And	-11.0371
94	-11.0374
▁lift	-11.0374
▁Cro	-11.0375
▁wearing	-11.0379
▁cable	-11.0379
▁Third	-11.038
▁ID	-11.0381
▁Almost	-11.0387
▁photography	-11.0389
▁Op	-11.039
▁arrive	-11.0391
▁keeps	-11.0392
▁fe	-11.0394
iff	-11.0394
▁efficiently	-11.0396
▁Mental	-11.0397
▁Gi	-11.0399
▁hunt	-11.0399
ash	-11.04
▁council	-11.0401
▁Count	-11.0406
▁VI	-11.0407
▁infrared	-11.0408
▁swelling	-11.0408
▁boom	-11.041
▁breaks	-11.0411
▁modeling	-11.0411
▁Persian	-11.0412
hour	-11.0415
▁Theory	-11.0422
▁Imagine	-11.0423
▁Gene	-11.0431
▁Explain	-11.0432
▁Methods	-11.0433
▁UV	-11.0437
play	-11.0438
▁bite	-11.0438
body	-11.0441
▁triangle	-11.0442
▁Activities	-11.0446
▁gift	-11.0448
92	-11.0449
▁films	-11.0449
▁Ken	-11.0451
nar	-11.0452
▁Iraq	-11.0455
▁Activity	-11.0455
nom	-11.0457
▁crear	-11.0459
3)	-11.0461
▁bin	-11.0461
▁float	-11.0461
▁applies	-11.0461
tting	-11.0463
▁magic	-11.0464
burg	-11.0465
▁preferred	-11.047
▁Nearly	-11.0471
ér	-11.0472
▁meaningful	-11.0475
▁tower	-11.0475
lit	-11.0476
▁patent	-11.0477
▁barrier	-11.0479
aged	-11.0479
▁visiting	-11.048
▁McC	-11.0481
▁Avoid	-11.0483
▁Practice	-11.0483
CS	-11.0486
▁alarm	-11.0487
▁healing	-11.0488
risk	-11.049
▁bits	-11.049
▁ADHD	-11.049
▁mod	-11.0491
EM	-11.0497
▁embedded	-11.0498
▁Multi	-11.0499
▁Diet	-11.05
800	-11.05
▁footprint	-11.0502
0°	-11.0503
▁illustrations	-11.0504
▁circular	-11.0505
▁Chile	-11.0506
▁Lakes	-11.0506
Ro	-11.0506
▁publications	-11.0508
▁wi	-11.0512
300	-11.0514
▁Arabic	-11.0515
▁uno	-11.0515
wer	-11.0516
▁clusters	-11.0516
ador	-11.0516
▁circles	-11.052
▁legend	-11.052
▁mayor	-11.0521
▁prototype	-11.0521
care	-11.0525
▁slide	-11.0528
▁Mel	-11.0533
▁Ban	-11.0533
bury	-11.0534
▁mal	-11.0534
▁Political	-11.0536
ora	-11.0537
▁powered	-11.0538
leg	-11.0538
ulate	-11.0538
▁circulation	-11.0539
▁creativity	-11.0542
▁Ri	-11.0545
▁minds	-11.0545
▁ingredient	-11.0545
▁Syndrome	-11.0547
ง	-11.0547
▁Fu	-11.0552
▁providers	-11.0558
▁Golden	-11.0559
▁vapor	-11.056
▁GNU	-11.0561
▁Amendment	-11.0564
▁labels	-11.0565
Ex	-11.0568
▁artifacts	-11.0568
▁workplace	-11.0569
▁artery	-11.0569
▁Luther	-11.0571
ides	-11.0572
▁assignment	-11.0572
▁64	-11.0575
▁strengthen	-11.0576
yo	-11.0576
▁memories	-11.0587
tte	-11.0587
ario	-11.0587
take	-11.0588
▁persistent	-11.0588
gro	-11.0589
▁rotation	-11.0589
▁preservation	-11.0592
▁п	-11.0596
▁quiet	-11.0598
▁Mind	-11.06
▁hero	-11.06
dra	-11.0602
▁mejor	-11.0603
▁vice	-11.0603
But	-11.0604
บ	-11.0605
▁orientation	-11.0606
▁hang	-11.0608
och	-11.0608
▁Give	-11.0609
▁gut	-11.0614
▁balanced	-11.0615
▁chips	-11.0616
▁Ford	-11.0617
▁Peninsula	-11.062
▁dozen	-11.0621
▁terrain	-11.0623
▁viewing	-11.0624
tors	-11.0629
▁sensation	-11.0629
▁Soil	-11.0631
▁gods	-11.0637
▁precipitation	-11.0638
zy	-11.064
▁bearing	-11.0642
▁Connecticut	-11.0648
▁Problem	-11.0648
▁lunch	-11.065
▁qualities	-11.0653
▁clothes	-11.0654
▁const	-11.0658
▁Mid	-11.0659
far	-11.0659
▁emperor	-11.0661
▁speaker	-11.0662
▁ultimate	-11.0664
▁Urban	-11.0664
▁notable	-11.0665
▁zoo	-11.0665
worth	-11.067
▁welfare	-11.0671
▁Einstein	-11.0671
▁involvement	-11.0674
▁courtesy	-11.0674
▁speeds	-11.0677
source	-11.0677
TO	-11.0678
▁Discovery	-11.0683
▁2010.	-11.0683
▁insights	-11.0687
▁50%	-11.0688
▁Esta	-11.0688
▁calm	-11.0688
▁Geological	-11.0689
▁Afghanistan	-11.0693
▁comfort	-11.0695
▁collaborative	-11.0696
▁weekend	-11.0699
▁pH	-11.0699
▁Buddhist	-11.0699
▁trick	-11.0702
▁beat	-11.0703
cate	-11.0704
▁closest	-11.0705
gle	-11.0707
▁30,	-11.0709
▁emission	-11.0711
▁metabolism	-11.0714
▁Recently	-11.0714
▁spiral	-11.0714
▁restricted	-11.0714
new	-11.0716
ef	-11.0717
▁shop	-11.0718
▁flies	-11.0719
RS	-11.0721
▁opposition	-11.0724
arch	-11.0725
▁Follow	-11.0726
▁DE	-11.0727
▁chamber	-11.0728
▁(15	-11.0733
win	-11.0734
▁addressing	-11.0736
▁cloth	-11.0738
▁actively	-11.0738
▁Fla	-11.0739
▁tomb	-11.0739
▁Location	-11.074
▁Apr	-11.0742
▁referring	-11.0746
▁Os	-11.0746
▁nerves	-11.0747
▁basics	-11.0749
▁Olympic	-11.0751
▁establishing	-11.0751
aba	-11.0752
ges	-11.0754
ito	-11.0757
▁44	-11.0762
▁NOT	-11.0762
real	-11.0763
oso	-11.0764
▁rings	-11.0768
▁reputation	-11.077
▁fossils	-11.0771
▁argued	-11.0772
▁unlikely	-11.0772
▁Dam	-11.0773
▁Peru	-11.0773
▁Rather	-11.0773
▁subscribe	-11.0774
▁Geo	-11.0774
▁creature	-11.0775
flu	-11.0776
▁sensitivity	-11.0776
aff	-11.0777
▁Sleep	-11.0779
▁astronomy	-11.078
▁Classroom	-11.078
▁tubes	-11.0782
▁bats	-11.0783
flower	-11.0783
▁Die	-11.0783
3%	-11.0785
▁Res	-11.0787
▁Gra	-11.0788
▁perennial	-11.0788
▁gay	-11.0789
▁plasma	-11.079
uv	-11.079
ante	-11.0791
▁irrigation	-11.0791
▁Join	-11.0792
ого	-11.0794
▁broadcast	-11.0796
▁Around	-11.0796
▁alternate	-11.0796
▁seal	-11.0801
ME	-11.0802
ym	-11.0803
▁bought	-11.0807
▁Endangered	-11.081
▁tra	-11.0811
▁Renaissance	-11.0818
▁grounds	-11.0819
▁proposal	-11.0819
▁Programme	-11.0821
▁dangers	-11.0822
▁probe	-11.0822
▁oak	-11.0823
▁Sustainable	-11.0823
CL	-11.0824
ato	-11.0825
▁substitute	-11.0825
▁impression	-11.0828
▁]	-11.0829
▁profession	-11.0832
lis	-11.0837
▁choosing	-11.0838
▁boxes	-11.084
▁educate	-11.084
▁wash	-11.0842
▁об	-11.0844
▁toys	-11.0845
▁API	-11.0846
▁outline	-11.0849
▁partial	-11.0849
▁Popular	-11.0852
▁unprecedented	-11.0855
rá	-11.0856
ching	-11.0858
▁joy	-11.086
▁bra	-11.0862
▁healthier	-11.0863
▁bri	-11.0865
9%	-11.0867
▁allergy	-11.0869
▁partly	-11.0869
▁duty	-11.087
▁Aquí	-11.087
▁amino	-11.0871
▁Choose	-11.0872
▁crystal	-11.0873
▁scheme	-11.0873
▁eco	-11.0874
SI	-11.0875
nu	-11.0875
kh	-11.0875
▁hunger	-11.0879
▁scenario	-11.088
▁Hitler	-11.0881
pot	-11.0881
▁Upper	-11.0882
▁Ob	-11.0883
▁retain	-11.0886
▁shield	-11.0889
▁channels	-11.089
▁strict	-11.0891
▁targeted	-11.0891
▁Links	-11.0892
▁Explore	-11.0894
▁BBC	-11.0896
▁(“	-11.0897
▁simulation	-11.0897
style	-11.09
▁Cho	-11.0901
▁App	-11.0902
▁Movement	-11.0902
▁wo	-11.0903
▁sale	-11.0904
▁tremendous	-11.0904
▁neutral	-11.0908
▁somewhere	-11.091
▁Muslims	-11.0911
▁diets	-11.0911
▁finish	-11.0912
▁patch	-11.0912
▁lymph	-11.0914
▁extracted	-11.0915
ias	-11.0916
▁pupils	-11.0918
▁Cook	-11.092
▁sta	-11.092
▁NOAA	-11.0921
vy	-11.0925
▁mas	-11.0927
ivo	-11.0928
▁adjust	-11.0928
▁dye	-11.0928
▁altered	-11.0934
▁consult	-11.0934
ona	-11.0934
▁Turn	-11.0936
▁Em	-11.0939
fully	-11.0939
▁onset	-11.0944
open	-11.0945
▁crowd	-11.0946
▁environmentally	-11.0948
▁yesterday	-11.0949
▁systematic	-11.095
▁databases	-11.0952
▁Furthermore	-11.0952
cion	-11.0954
nel	-11.0956
ere	-11.0958
▁duration	-11.0959
▁dominated	-11.0959
▁lining	-11.096
▁legacy	-11.0961
▁classrooms	-11.0965
▁occupation	-11.0966
self	-11.0966
ill	-11.0966
▁managers	-11.0966
▁strains	-11.0967
▁demonstrates	-11.0967
▁hurricane	-11.0974
▁scrap	-11.0974
▁compiled	-11.0974
▁participating	-11.0974
α	-11.0978
▁genera	-11.0978
▁Nor	-11.0979
▁examining	-11.0981
▁southwest	-11.0982
▁Further	-11.0988
▁Images	-11.0989
▁grey	-11.0989
▁defeat	-11.099
▁Protocol	-11.0991
▁architectural	-11.0992
▁partially	-11.0994
▁Along	-11.0994
▁2007,	-11.0994
▁teen	-11.0994
ural	-11.0998
▁genetics	-11.0998
ace	-11.1001
edu	-11.1009
▁Bear	-11.1011
▁800	-11.1012
ар	-11.1013
▁Newton	-11.1014
▁mechanics	-11.1015
cas	-11.1016
▁glands	-11.1017
▁weapon	-11.1019
▁tends	-11.1019
▁colorful	-11.1024
▁Psychology	-11.1024
▁shut	-11.1025
bot	-11.1025
▁Return	-11.1026
▁prop	-11.103
any	-11.1033
▁factory	-11.1034
trans	-11.1034
▁Knowledge	-11.104
▁profound	-11.1043
▁(6	-11.1044
▁une	-11.1044
lac	-11.1045
▁residential	-11.1047
▁thereby	-11.1048
Ar	-11.1049
▁moist	-11.105
▁integrate	-11.1051
▁utilize	-11.1052
▁meta	-11.1053
tos	-11.1053
▁tracking	-11.1058
▁supplements	-11.1058
▁citizen	-11.1061
▁pile	-11.1061
cción	-11.1061
▁constitutional	-11.1063
▁código	-11.1065
▁2011.	-11.1066
▁conducting	-11.107
▁@	-11.107
wan	-11.1073
▁infect	-11.1073
▁encyclopedia	-11.1074
▁emit	-11.1078
▁reasoning	-11.1078
อ	-11.1081
▁Del	-11.1083
▁award	-11.1085
▁enjoyed	-11.1086
▁folk	-11.109
▁2020	-11.1092
▁philosophical	-11.1092
▁rises	-11.1096
▁groundwater	-11.1097
▁barriers	-11.1098
▁39	-11.1099
▁geological	-11.1099
▁static	-11.1101
▁intensive	-11.1103
▁Self	-11.1104
plant	-11.1106
▁entrance	-11.1107
▁constitution	-11.1108
▁Past	-11.1108
comp	-11.1108
▁wars	-11.1111
▁Evolution	-11.1112
▁ion	-11.1113
▁cr	-11.1115
bil	-11.1117
▁mon	-11.1121
▁transferred	-11.1124
dom	-11.1124
▁spectacular	-11.1126
OT	-11.1127
▁gra	-11.1128
▁enzymes	-11.113
▁Auto	-11.1131
▁che	-11.1141
▁busy	-11.1143
▁Philip	-11.1148
▁Say	-11.1149
▁flowing	-11.1152
rous	-11.1154
▁labour	-11.1155
▁sch	-11.1155
▁descriptions	-11.1157
▁snake	-11.1157
▁northwest	-11.1157
▁Travel	-11.1159
▁earned	-11.1159
▁conflicts	-11.1161
▁fibers	-11.1161
▁longest	-11.1162
rays	-11.1164
▁suspect	-11.1164
▁strategic	-11.1165
ENT	-11.1165
▁liberal	-11.1166
▁progressive	-11.1166
▁plaque	-11.1169
▁titled	-11.117
▁possibilities	-11.1171
▁attempted	-11.1173
vit	-11.1175
▁transformed	-11.1176
▁Moreover	-11.1177
▁tracks	-11.1177
▁Defense	-11.1178
▁worker	-11.1178
1.	-11.1179
▁mundo	-11.118
▁limitations	-11.1182
▁expertise	-11.1183
▁shadow	-11.1184
adas	-11.1185
▁posts	-11.1185
▁hasta	-11.1186
zz	-11.1188
▁URL	-11.1188
▁1988	-11.1189
▁evident	-11.1189
▁shuttle	-11.1189
▁Body	-11.119
iendo	-11.119
▁tight	-11.1193
lig	-11.1197
▁Maria	-11.1197
▁Sep	-11.1199
▁Patrick	-11.1201
▁attributes	-11.1202
▁1986	-11.1203
rt	-11.1204
Ba	-11.1206
DS	-11.1207
▁Jun	-11.1211
▁bulbs	-11.1211
▁Club	-11.1211
▁radical	-11.1211
▁simultaneously	-11.1212
▁camps	-11.1213
ame	-11.1215
▁lock	-11.1216
▁castle	-11.1218
▁apple	-11.1218
load	-11.1219
▁heal	-11.1219
fire	-11.122
▁MO	-11.1222
▁spell	-11.1222
▁Content	-11.1222
▁embargo	-11.1224
▁license	-11.1224
▁Ram	-11.1226
▁sto	-11.1227
equ	-11.123
▁Ol	-11.1231
▁newspapers	-11.1231
▁Arm	-11.1232
▁ecology	-11.1233
▁Emergency	-11.1234
▁hills	-11.1236
▁vent	-11.1236
▁Very	-11.1239
▁cycles	-11.1241
▁beings	-11.1243
▁tension	-11.1246
fall	-11.1246
rac	-11.1248
▁blend	-11.1249
▁northeast	-11.1252
Bo	-11.1255
ON	-11.1257
ographic	-11.126
gri	-11.1261
NET	-11.1263
▁Literacy	-11.1264
▁algunos	-11.1264
▁freely	-11.1265
▁melting	-11.1266
mis	-11.127
▁requirement	-11.127
能	-11.1271
‘	-11.1271
▁steep	-11.1272
ор	-11.1273
stra	-11.1273
▁ensuring	-11.1275
▁southeast	-11.1275
▁Tell	-11.1279
▁rating	-11.1282
sur	-11.1282
Un	-11.1283
ison	-11.1284
▁il	-11.1284
▁movies	-11.1288
▁crash	-11.1288
▁severity	-11.1289
▁gallons	-11.1289
▁Youth	-11.129
▁rats	-11.1291
▁harsh	-11.1293
▁frozen	-11.1294
ín	-11.1298
▁tunnel	-11.1299
lect	-11.1299
5)	-11.1301
▁versus	-11.1302
ied	-11.1303
0%	-11.1305
▁curious	-11.1307
▁Record	-11.1308
En	-11.1309
aga	-11.131
▁astronauts	-11.1311
▁Updated	-11.1315
▁puzzle	-11.1318
▁Flash	-11.1318
▁TB	-11.1319
▁Romans	-11.132
▁marketing	-11.1321
▁Sta	-11.1322
▁currency	-11.1323
▁designing	-11.1324
▁separation	-11.1325
▁Ash	-11.1327
ся	-11.133
▁homework	-11.1332
▁pests	-11.1334
place	-11.1334
pm	-11.1336
▁>>	-11.1336
▁opinions	-11.1337
▁2.5	-11.1337
ille	-11.134
▁GPS	-11.134
▁brothers	-11.134
using	-11.1341
▁tone	-11.1343
▁accomplish	-11.1343
▁trading	-11.1344
▁incorporate	-11.1346
▁IBM	-11.1348
▁drives	-11.1348
▁drawings	-11.1349
че	-11.1352
▁reefs	-11.1354
cl	-11.1355
▁Freedom	-11.1357
▁Individual	-11.1359
▁behave	-11.136
▁IS	-11.1362
▁electro	-11.1362
▁conjunction	-11.1364
▁Curiosity	-11.1365
▁relieve	-11.1369
grass	-11.137
▁noble	-11.137
▁Argentina	-11.137
▁mini	-11.1372
gest	-11.1373
ный	-11.1373
▁architect	-11.1374
▁animation	-11.1375
My	-11.1376
▁crust	-11.1378
LI	-11.1381
▁ci	-11.1382
nk	-11.1383
▁gasoline	-11.1383
▁judge	-11.1386
▁expectations	-11.1388
▁CT	-11.1388
human	-11.1389
▁breathe	-11.1391
▁expressions	-11.1392
▁;	-11.1393
▁Cultural	-11.1396
bs	-11.1396
▁cuenta	-11.1397
▁fallen	-11.1399
nis	-11.1399
▁Fri	-11.1399
▁Jane	-11.1401
▁Looking	-11.1401
▁personas	-11.1402
▁administrative	-11.1404
▁compete	-11.141
▁floating	-11.141
▁crater	-11.1413
▁Williams	-11.1415
▁elevated	-11.1416
▁Prof	-11.1416
▁chapters	-11.1418
ule	-11.1419
▁climb	-11.142
▁ou	-11.1421
color	-11.1422
▁cómo	-11.1423
▁League	-11.1424
▁elevation	-11.1425
▁football	-11.1425
▁acquire	-11.1425
itz	-11.1426
▁collective	-11.1427
▁coin	-11.143
▁sistema	-11.1432
▁Nevada	-11.1435
▁horizon	-11.1436
▁feathers	-11.1436
▁д	-11.1437
ATION	-11.1441
▁clues	-11.1441
▁1918	-11.1441
itch	-11.1444
▁auf	-11.1445
▁doctrine	-11.1446
rant	-11.1446
▁Fun	-11.1447
▁injection	-11.1447
▁Ap	-11.1451
▁lit	-11.1454
range	-11.1458
▁myself	-11.146
▁dig	-11.146
▁sha	-11.146
▁worn	-11.146
▁absorbed	-11.1462
▁Desert	-11.1464
sum	-11.1465
▁timber	-11.1465
eri	-11.1467
▁Rob	-11.1468
sign	-11.147
ə	-11.147
▁ph	-11.1472
EE	-11.1475
▁nuts	-11.1477
▁Stra	-11.1477
cle	-11.1477
▁contra	-11.1478
▁organize	-11.1478
▁breakthrough	-11.1478
▁bush	-11.148
ami	-11.148
▁concentrated	-11.148
powered	-11.1482
uf	-11.1482
▁dried	-11.1485
▁attitude	-11.1487
ру	-11.1488
virus	-11.1489
▁constellation	-11.1489
just	-11.1489
ched	-11.149
▁fleet	-11.1494
▁needle	-11.1495
▁Esto	-11.1496
▁treaty	-11.1498
▁peers	-11.1501
▁так	-11.1504
▁democratic	-11.1505
1%	-11.1507
▁Ju	-11.151
nn	-11.1511
▁Sie	-11.1513
where	-11.1514
▁trillion	-11.1514
▁Written	-11.1515
TER	-11.1516
-16	-11.1517
▁comet	-11.1518
▁distances	-11.1519
▁Qui	-11.152
quality	-11.1522
▁Forum	-11.1524
▁yeast	-11.1524
▁XML	-11.1524
▁enterprise	-11.1525
▁minimal	-11.1526
▁poems	-11.1527
cip	-11.1527
▁AP	-11.1528
▁poorly	-11.1529
▁seeks	-11.153
▁hepatitis	-11.153
▁Ber	-11.1534
▁Us	-11.1535
mil	-11.1535
On	-11.1537
this	-11.1538
▁transit	-11.154
IR	-11.1542
▁presidential	-11.1544
▁Curriculum	-11.1547
▁Works	-11.1549
▁historically	-11.155
▁comprises	-11.1551
▁kid	-11.1552
amente	-11.1553
▁fault	-11.1553
▁Tim	-11.1554
▁encouraging	-11.1554
lio	-11.1557
▁font	-11.1561
▁skeleton	-11.1562
lat	-11.1562
▁dwarf	-11.1563
horn	-11.1564
▁tag	-11.1566
▁compost	-11.1567
▁Ci	-11.1567
▁essays	-11.1568
▁(10	-11.1569
▁latitude	-11.157
▁binary	-11.1571
▁Types	-11.1572
cin	-11.1572
▁mutations	-11.1577
▁pod	-11.1578
▁perceived	-11.1579
▁equipped	-11.1579
▁fungus	-11.1581
▁founding	-11.1582
▁Save	-11.1588
▁Regional	-11.1589
▁poll	-11.159
▁Min	-11.1597
mate	-11.1597
rian	-11.1602
▁intent	-11.1603
▁strip	-11.1603
▁trunk	-11.1603
▁sleeping	-11.1605
▁sixth	-11.1605
▁dollar	-11.1607
▁interventions	-11.1607
SD	-11.1609
▁fungi	-11.1611
ного	-11.1615
▁diferentes	-11.1616
▁rubber	-11.1616
2%	-11.1619
bul	-11.1621
ook	-11.1622
▁disciplines	-11.1625
code	-11.1627
▁aside	-11.1633
▁valve	-11.1634
▁Captain	-11.1634
ая	-11.1635
nate	-11.1635
▁Clinic	-11.164
▁explaining	-11.164
▁discussing	-11.1643
eur	-11.1643
▁reef	-11.165
▁suggesting	-11.1653
▁Sign	-11.1654
▁prevented	-11.1656
sión	-11.1656
▁transparent	-11.1662
▁Annual	-11.1663
▁brilliant	-11.1663
▁controversy	-11.1665
▁precisely	-11.1665
▁rush	-11.1666
▁bold	-11.1667
▁execution	-11.1669
▁persona	-11.1669
▁1850	-11.1671
▁appreciate	-11.1674
▁Category	-11.1675
▁forecast	-11.1675
][	-11.1679
▁impairment	-11.168
▁Wiki	-11.168
▁prescription	-11.1683
▁Trail	-11.1684
▁hall	-11.1687
▁Bel	-11.1689
▁Mag	-11.169
MC	-11.169
▁Columbus	-11.1696
▁locate	-11.1697
▁Houston	-11.1698
PL	-11.1699
rid	-11.1699
▁Adams	-11.1699
ache	-11.1701
▁Max	-11.1703
▁kilometres	-11.1704
▁nucleus	-11.1705
shore	-11.1706
▁metabolic	-11.1707
▁safer	-11.1709
▁biomass	-11.1711
pos	-11.1712
▁acc	-11.1713
▁Hopkins	-11.1713
▁9.	-11.1713
▁containers	-11.1713
▁prescribed	-11.1714
▁2006,	-11.1715
cro	-11.1715
ве	-11.1717
▁turtles	-11.1717
▁butter	-11.1719
▁10%	-11.1721
▁installation	-11.1725
▁Love	-11.1726
▁Run	-11.1726
storm	-11.1727
kan	-11.1728
▁Cut	-11.1729
▁rational	-11.1731
▁Southeast	-11.1731
▁bulk	-11.1732
▁Mas	-11.1732
||1	-11.1732
ffer	-11.1734
▁elections	-11.1734
▁Discover	-11.1738
▁drill	-11.1743
▁alike	-11.1746
pha	-11.1754
▁Norway	-11.1754
▁anger	-11.1754
▁achieving	-11.1755
wise	-11.1756
▁Religion	-11.1759
mel	-11.1759
ago	-11.1762
▁adaptation	-11.1763
▁Benjamin	-11.1765
▁Ste	-11.1766
▁settle	-11.1767
▁codes	-11.1767
▁Ball	-11.1767
▁evaluated	-11.1769
▁Notes	-11.177
▁declined	-11.177
▁puts	-11.177
▁bath	-11.1771
▁sad	-11.1772
▁Award	-11.1773
So	-11.1774
▁Price	-11.1774
▁Photograph	-11.1775
▁argues	-11.1775
▁bugs	-11.1776
▁drilling	-11.1777
May	-11.1781
▁bowel	-11.1783
round	-11.1783
▁participated	-11.1783
▁Iron	-11.1784
▁bitter	-11.1784
не	-11.1784
▁rhythm	-11.1784
▁connecting	-11.1786
▁char	-11.1789
▁Fat	-11.179
ifying	-11.1797
▁paying	-11.1797
▁rash	-11.1798
▁Switzerland	-11.1798
▁Finding	-11.1801
▁blast	-11.1804
roll	-11.1805
▁pencil	-11.1807
▁indoor	-11.181
who	-11.1811
▁Susan	-11.1811
▁node	-11.1811
▁placing	-11.1811
▁AS	-11.1812
▁Would	-11.1815
▁drum	-11.1815
Se	-11.1817
pid	-11.1822
▁sustain	-11.1822
ote	-11.1824
▁Province	-11.1824
▁Prime	-11.1825
▁Austria	-11.1826
PI	-11.1826
▁insufficient	-11.1827
▁día	-11.1827
NO	-11.1831
ked	-11.1832
▁columns	-11.1833
▁Ministry	-11.1835
▁talks	-11.1836
▁larvae	-11.1836
▁MP	-11.1838
tens	-11.1839
ว	-11.184
▁adverse	-11.1841
▁reserves	-11.1844
▁seasons	-11.1847
91	-11.1847
Po	-11.1848
▁yard	-11.1849
▁judgment	-11.185
biotic	-11.185
oni	-11.185
▁ownership	-11.1851
income	-11.1851
▁forum	-11.1854
▁guides	-11.1855
▁Six	-11.1856
PC	-11.1859
▁Mis	-11.186
▁mosquito	-11.186
▁Orleans	-11.1861
VI	-11.1861
▁fifty	-11.1869
cen	-11.187
▁col	-11.187
ku	-11.1871
▁calculations	-11.1871
▁Torah	-11.1872
▁prayer	-11.1875
iel	-11.1879
▁pur	-11.188
▁Treaty	-11.1882
rri	-11.1882
▁citations	-11.1883
▁underwater	-11.1884
▁pl	-11.1884
▁fate	-11.1885
pri	-11.1887
ats	-11.1889
▁Exercise	-11.1891
MI	-11.1891
▁traces	-11.1894
position	-11.1895
ล	-11.1896
▁Essay	-11.1897
▁Sydney	-11.1899
▁afternoon	-11.1903
▁под	-11.1904
you	-11.1905
zing	-11.1906
▁extending	-11.1908
lim	-11.1909
▁strings	-11.191
LD	-11.1912
als	-11.1913
▁sensory	-11.1914
▁steady	-11.1914
▁Penn	-11.1917
▁reproduce	-11.1918
▁Steven	-11.1918
▁bags	-11.1919
▁Una	-11.1922
▁flame	-11.1922
its	-11.1922
▁Put	-11.1922
▁promising	-11.1927
▁competitive	-11.1927
▁cylinder	-11.1928
▁stack	-11.1928
▁fitness	-11.1928
five	-11.1928
▁succeeded	-11.1932
▁Planning	-11.1932
▁sing	-11.1934
▁prompt	-11.1935
én	-11.1935
▁Staff	-11.1935
grad	-11.1937
▁receives	-11.1938
▁yields	-11.1939
▁Dia	-11.1943
▁Talk	-11.1944
вер	-11.1945
▁Protestant	-11.1946
▁returning	-11.1947
▁1941	-11.195
▁excited	-11.1952
▁shoulder	-11.1954
▁guarantee	-11.1955
▁defining	-11.1961
用	-11.1963
▁Juan	-11.1963
▁portrait	-11.1964
third	-11.1969
▁Republican	-11.1972
▁lasting	-11.1975
▁1861	-11.1975
▁rot	-11.1976
▁headed	-11.1977
▁Dun	-11.198
▁pollen	-11.1981
oy	-11.1987
▁Aboriginal	-11.1987
▁relatives	-11.1988
▁spotted	-11.199
▁Communication	-11.199
▁pm	-11.199
▁Technical	-11.1993
IV	-11.1994
rill	-11.1995
ground	-11.1995
▁Harry	-11.1996
▁inhabit	-11.1998
▁mere	-11.1998
▁demonstration	-11.2
gue	-11.2001
▁Seattle	-11.2003
▁Getting	-11.2004
tica	-11.2006
▁shark	-11.2006
▁Sri	-11.2006
ema	-11.2007
sey	-11.201
по	-11.201
▁visits	-11.2011
OP	-11.2016
▁Char	-11.2016
berry	-11.2018
ump	-11.2026
中	-11.2026
▁pleasure	-11.2027
▁Present	-11.2028
▁punishment	-11.2028
-15	-11.203
cc	-11.2032
▁analyzing	-11.2033
▁Executive	-11.2033
acy	-11.2035
▁Mont	-11.2037
▁initiatives	-11.2038
чи	-11.2041
▁Frederick	-11.2041
▁tale	-11.2042
▁antibodies	-11.2043
▁boot	-11.2043
▁resident	-11.2044
▁Total	-11.2044
wel	-11.2047
▁suspected	-11.2048
▁Magazine	-11.2048
▁perfectly	-11.2048
▁мо	-11.2049
▁Cons	-11.205
▁beef	-11.205
▁residence	-11.2052
▁Late	-11.2053
▁Yu	-11.2053
▁Parks	-11.2055
▁floods	-11.2056
nos	-11.2057
▁archive	-11.2059
▁circuits	-11.2062
▁dinosaur	-11.2069
▁voyage	-11.2069
EG	-11.207
ern	-11.207
▁primitive	-11.2071
▁prevalent	-11.2072
▁rows	-11.2073
▁supplement	-11.2073
▁portions	-11.2074
▁Ross	-11.2076
▁Everyone	-11.2078
▁encountered	-11.2079
▁sail	-11.2079
oke	-11.2079
These	-11.2079
▁rescue	-11.2083
▁Period	-11.2083
▁reasonable	-11.2083
és	-11.2083
▁dynamics	-11.2083
▁counting	-11.2086
▁bee	-11.2086
▁definitely	-11.2087
▁forever	-11.2089
▁formerly	-11.209
▁Fruit	-11.2092
data	-11.2094
▁Corn	-11.2094
sol	-11.2097
▁march	-11.2098
site	-11.2098
lus	-11.2099
▁pole	-11.2101
▁Canyon	-11.2102
▁attracted	-11.2105
responsibilities	-11.2105
▁excerpt	-11.2105
bl	-11.2106
▁meteor	-11.2106
▁export	-11.2107
▁sessions	-11.2107
▁reviews	-11.2109
▁weekly	-11.211
▁provision	-11.211
▁metric	-11.2111
▁severely	-11.2114
ering	-11.2121
▁kernel	-11.2121
▁Release	-11.2121
tine	-11.2123
▁2005,	-11.2128
▁shoes	-11.2128
▁interfere	-11.2129
▁wage	-11.2132
▁toilet	-11.2133
▁shortly	-11.2135
▁locally	-11.2136
▁melt	-11.2139
EST	-11.2141
▁accomplished	-11.2141
▁proud	-11.2141
ите	-11.2142
cri	-11.2143
▁analyses	-11.2144
▁spray	-11.2145
▁elaborate	-11.2146
▁Simple	-11.215
igh	-11.215
▁scheduled	-11.215
RP	-11.2158
▁Habitat	-11.2159
▁exploit	-11.216
▁fertility	-11.216
▁Thank	-11.216
ific	-11.2161
▁Generally	-11.2162
▁Experiment	-11.2162
▁revolutionary	-11.2166
▁scar	-11.2169
▁occasion	-11.217
▁executed	-11.217
ия	-11.2171
▁cope	-11.2171
▁buffer	-11.2172
▁fluids	-11.2173
▁travels	-11.2175
app	-11.2179
▁adoption	-11.2179
inus	-11.2179
▁optimal	-11.2183
▁kidneys	-11.2184
▁territories	-11.2184
▁Sky	-11.2185
▁flour	-11.2185
aceae	-11.2186
▁completion	-11.2188
▁Want	-11.2188
▁crossing	-11.219
▁hatch	-11.22
▁indicators	-11.2201
vir	-11.2201
DA	-11.2201
▁intestine	-11.2203
▁investigated	-11.2203
▁1942	-11.2204
▁(8	-11.2206
▁Geography	-11.2208
▁Wal	-11.2208
una	-11.2209
▁Philosophy	-11.221
▁plug	-11.2211
▁Awareness	-11.2211
-11	-11.2212
▁priest	-11.2213
▁cardiac	-11.2214
▁symptom	-11.2214
▁Institution	-11.2214
ude	-11.2216
▁Words	-11.2216
▁hemisphere	-11.2219
▁totally	-11.222
▁enhanced	-11.222
▁AC	-11.2222
what	-11.2223
▁slight	-11.2224
▁belonging	-11.2225
▁Virtual	-11.2225
▁juego	-11.2225
▁31,	-11.2225
tron	-11.2226
▁cor	-11.2226
ika	-11.223
▁Heat	-11.223
▁Rh	-11.2231
CR	-11.2233
ying	-11.2234
▁makers	-11.2234
▁20%	-11.2235
ит	-11.2235
▁philosopher	-11.2235
▁gum	-11.2236
▁Front	-11.2236
▁geographical	-11.2238
▁SO	-11.2238
▁1939	-11.2239
ī	-11.2241
▁routes	-11.2242
▁Corporation	-11.2242
▁Military	-11.2242
▁Salt	-11.2247
▁mate	-11.225
▁sequences	-11.2251
▁Montana	-11.2251
▁comparing	-11.2252
▁Causes	-11.2252
°	-11.2253
▁Weight	-11.2255
AI	-11.2257
▁wound	-11.2258
▁nationwide	-11.2258
▁Method	-11.2258
▁broader	-11.2258
▁bands	-11.226
▁deals	-11.2262
▁wealthy	-11.2262
▁drama	-11.2264
ие	-11.2265
▁И	-11.2265
▁implementing	-11.2265
▁но	-11.2266
▁NE	-11.2266
pic	-11.2269
▁conscious	-11.2269
▁seemingly	-11.2274
▁Hor	-11.2276
▁Ce	-11.2281
▁ceremony	-11.2281
▁drag	-11.2282
▁amongst	-11.2283
▁biologists	-11.2283
▁bike	-11.2283
▁soap	-11.2284
ret	-11.2285
▁vocal	-11.2292
▁sink	-11.2292
▁Beach	-11.2292
scribe	-11.2293
▁twin	-11.2293
▁bug	-11.2294
▁silk	-11.2296
▁prophet	-11.2299
All	-11.2302
▁monthly	-11.2302
▁scattered	-11.2304
▁festival	-11.2306
script	-11.2308
▁Simon	-11.2308
ui	-11.2309
▁lying	-11.2312
▁struggling	-11.2313
▁subsequently	-11.2314
▁Christopher	-11.2315
▁signature	-11.2315
▁doors	-11.2317
▁bien	-11.2318
vic	-11.2321
▁info	-11.2323
▁Proceedings	-11.2324
▁lista	-11.2324
▁resolve	-11.2325
▁Skills	-11.2326
Di	-11.2327
rm	-11.2328
▁YouTube	-11.2328
ée	-11.2329
▁Experts	-11.2329
▁alternatives	-11.233
▁defend	-11.233
▁cosmic	-11.233
▁precious	-11.233
▁Snow	-11.2331
▁1880	-11.2331
▁Swedish	-11.2334
▁Eating	-11.2338
rel	-11.2339
▁bills	-11.2339
▁rooms	-11.234
▁recycled	-11.234
▁scenes	-11.2342
bal	-11.2343
▁farmer	-11.2348
▁1987	-11.2348
▁toxins	-11.2348
▁masses	-11.2348
▁billions	-11.235
▁possession	-11.2352
▁Challenge	-11.2353
▁43	-11.2353
▁unemployment	-11.2354
▁prairie	-11.2356
▁painter	-11.2357
▁radius	-11.2358
▁magnet	-11.2358
▁cows	-11.2359
▁witness	-11.2359
ore	-11.236
▁Ray	-11.236
Ra	-11.2361
▁doses	-11.2365
▁Sar	-11.2366
▁Taylor	-11.2368
▁consequence	-11.2368
▁Cre	-11.237
▁instant	-11.2371
ters	-11.2371
▁Steve	-11.2372
▁Rep	-11.2373
▁trap	-11.2377
▁tackle	-11.2378
circ	-11.2381
bor	-11.2382
▁Tro	-11.2383
▁NY	-11.2384
eu	-11.2385
▁realistic	-11.2387
▁2-	-11.2389
▁therapies	-11.2389
▁angles	-11.2391
atory	-11.2391
▁beaches	-11.2391
verse	-11.2392
▁Software	-11.2393
▁drainage	-11.2394
post	-11.2399
ML	-11.2401
▁Link	-11.2404
▁landscapes	-11.2406
▁administered	-11.241
▁ri	-11.2412
Fi	-11.2413
▁prize	-11.2417
▁tear	-11.2417
nas	-11.2417
▁Rose	-11.2421
▁picked	-11.2423
▁commission	-11.2423
▁immigration	-11.2425
link	-11.2428
gr	-11.2428
▁sampling	-11.2429
▁unexpected	-11.243
▁commissioned	-11.243
▁teenagers	-11.2431
▁Sol	-11.2432
duction	-11.2435
▁eruption	-11.2435
▁Miller	-11.2436
▁manufactured	-11.2439
▁privacy	-11.2443
map	-11.2443
▁mask	-11.2446
tag	-11.2447
▁Abstract	-11.2449
▁Enter	-11.245
illo	-11.245
▁abdomen	-11.2451
MM	-11.2454
▁assets	-11.2456
▁dress	-11.2457
▁dinner	-11.2457
IST	-11.2458
eck	-11.246
▁Database	-11.2461
▁holy	-11.2467
MD	-11.2468
fo	-11.2471
▁función	-11.2471
ines	-11.2471
▁Sierra	-11.2472
▁sons	-11.2476
sub	-11.2478
▁soldier	-11.2479
▁Wright	-11.2487
▁asks	-11.2487
▁Flight	-11.2488
Read	-11.2489
mission	-11.249
▁herself	-11.2491
▁1890	-11.2494
▁1979	-11.2494
▁pushed	-11.2495
AB	-11.2497
▁coins	-11.2498
▁respuesta	-11.2498
worm	-11.2499
▁contest	-11.2501
▁tendency	-11.2501
▁Mrs	-11.2502
▁Kan	-11.2504
▁addiction	-11.2505
▁wool	-11.2506
▁Gri	-11.2507
bid	-11.2509
under	-11.2509
RT	-11.2509
▁Consumer	-11.251
▁Archive	-11.2511
▁fisheries	-11.2512
▁miss	-11.2513
▁tied	-11.2514
even	-11.2516
▁sustained	-11.2516
▁может	-11.2517
▁Gallery	-11.252
▁potatoes	-11.2521
eye	-11.2523
▁1860	-11.2524
▁guitar	-11.2526
▁vomiting	-11.2528
▁Pin	-11.2529
▁utiliza	-11.2529
▁restrictions	-11.253
▁Net	-11.2532
▁robotic	-11.2538
▁Easter	-11.2538
▁Poly	-11.2541
▁overwhelming	-11.2541
▁kick	-11.2542
▁shower	-11.2543
aught	-11.2543
▁Yellow	-11.2549
▁Walter	-11.2553
▁Ve	-11.2554
▁happiness	-11.2559
▁Atmospheric	-11.256
bat	-11.2561
▁electromagnetic	-11.2562
order	-11.2562
▁ja	-11.2563
▁heading	-11.2564
▁Cloud	-11.2564
▁Polish	-11.2565
▁pad	-11.2565
▁Parkinson	-11.2566
▁rid	-11.2568
PH	-11.2569
▁networking	-11.2572
▁Ever	-11.2574
▁Server	-11.2575
cis	-11.2575
té	-11.2582
▁Sc	-11.2582
-7	-11.2583
▁bulb	-11.2583
▁3,000	-11.2585
▁accounting	-11.2587
▁progression	-11.2588
▁hypo	-11.2588
▁Allen	-11.2591
▁myths	-11.2596
ink	-11.2597
▁ST	-11.2598
cum	-11.2598
▁synthesis	-11.2599
▁Indigenous	-11.26
▁gen	-11.2601
▁weigh	-11.2602
▁dia	-11.2604
▁verse	-11.2607
▁peri	-11.2607
▁spark	-11.2608
▁keys	-11.2609
▁comprehension	-11.2611
▁eclipse	-11.2611
▁alongside	-11.2611
▁cultivated	-11.2611
OD	-11.2613
▁introduces	-11.2614
energy	-11.2614
▁Taking	-11.2616
▁assault	-11.2617
▁biologist	-11.2617
ด	-11.2619
▁economies	-11.2621
when	-11.2624
▁Eric	-11.2625
▁slope	-11.2625
▁enforcement	-11.2625
▁indicating	-11.2627
PE	-11.2627
▁glue	-11.2628
▁Bee	-11.263
▁Member	-11.2632
▁Ly	-11.2639
fect	-11.2639
rat	-11.2643
▁textbook	-11.2645
band	-11.2646
▁Bro	-11.2646
▁autumn	-11.2647
▁Ze	-11.2647
Lo	-11.2649
ava	-11.265
phan	-11.2653
tern	-11.2654
dio	-11.2658
▁veins	-11.2658
▁sword	-11.2659
▁horn	-11.2661
▁vacuum	-11.2661
▁Focus	-11.2661
▁Philippines	-11.2664
ature	-11.2664
▁А	-11.2664
▁convenient	-11.2666
chin	-11.2667
dal	-11.2668
▁buying	-11.2668
▁glaciers	-11.2669
▁Electric	-11.267
▁bonds	-11.267
▁offices	-11.267
hl	-11.2671
уч	-11.2673
vor	-11.2673
ult	-11.2674
▁encourages	-11.2675
tory	-11.2677
▁likelihood	-11.2677
▁ethanol	-11.2678
▁Lead	-11.2678
▁entries	-11.2678
▁carbohydrates	-11.2678
▁2012.	-11.2679
wn	-11.268
▁Nebraska	-11.2681
▁matrix	-11.2681
▁pound	-11.2683
▁Gall	-11.2684
▁wh	-11.2686
▁sexually	-11.2689
resistant	-11.2692
▁Beginning	-11.2692
ão	-11.2692
▁humidity	-11.2693
▁Portuguese	-11.2694
▁binding	-11.2699
▁Buddha	-11.27
▁41	-11.2702
▁surviving	-11.2706
ony	-11.2706
▁ritual	-11.2707
▁Spirit	-11.2708
▁Pain	-11.2709
▁undergraduate	-11.2712
▁Smart	-11.2713
▁mounted	-11.2713
▁inflation	-11.2714
▁hack	-11.2717
One	-11.2723
▁documentation	-11.2724
▁hum	-11.2725
tile	-11.2726
▁46	-11.2727
rain	-11.2727
▁geology	-11.2728
▁Ag	-11.2728
▁volumes	-11.273
hin	-11.2731
▁quest	-11.2732
▁Nano	-11.2733
ц	-11.2735
▁Tor	-11.2739
▁whenever	-11.2739
▁crystals	-11.274
▁incredible	-11.274
▁Sheet	-11.2742
otic	-11.2743
▁pursue	-11.2743
▁pandemic	-11.2746
▁willing	-11.2748
▁submitted	-11.2748
▁LED	-11.2749
ales	-11.2749
–19	-11.2752
▁planetary	-11.2756
▁burial	-11.2757
▁Box	-11.2762
logy	-11.2764
ал	-11.2764
▁belongs	-11.2764
aging	-11.2765
▁frontier	-11.2765
▁CE	-11.2765
hy	-11.2767
▁courts	-11.277
phe	-11.2771
▁candidates	-11.2771
▁Ham	-11.2772
▁independently	-11.2772
▁disappear	-11.2773
▁85	-11.2776
ali	-11.2779
ั	-11.278
DR	-11.2781
▁representatives	-11.2782
▁mutation	-11.2783
▁isolation	-11.2784
▁voting	-11.2784
▁abdominal	-11.2785
▁feast	-11.2787
▁combustion	-11.2787
weight	-11.2788
lot	-11.2788
▁з	-11.2791
▁conclusions	-11.2793
▁exp	-11.2793
has	-11.2795
为	-11.2796
▁flowering	-11.2796
▁pyramid	-11.2798
▁segments	-11.2799
ами	-11.2801
dr	-11.2802
▁profit	-11.2803
▁ba	-11.2804
UT	-11.2804
▁tags	-11.2807
▁pat	-11.2809
▁writings	-11.281
▁spider	-11.2812
hor	-11.2816
▁comprised	-11.2816
▁bow	-11.2817
▁Yo	-11.2818
大	-11.2821
▁resemble	-11.2823
▁coating	-11.2824
▁coli	-11.2825
ech	-11.2828
▁Brief	-11.2829
▁cited	-11.2829
)||	-11.2831
▁petroleum	-11.2833
▁grasp	-11.2834
▁facial	-11.2841
▁designers	-11.2842
▁sponsored	-11.2843
▁sharks	-11.2843
▁lugar	-11.2843
ela	-11.2844
▁Dark	-11.2845
▁criticism	-11.2846
▁railway	-11.2848
tas	-11.2849
▁damaging	-11.2849
▁1972	-11.2851
▁projected	-11.2853
mont	-11.2854
▁Ker	-11.2855
kar	-11.2856
▁fold	-11.2857
▁qu	-11.286
▁subtle	-11.286
▁instructional	-11.2862
▁Castle	-11.2863
▁timing	-11.2864
▁Victorian	-11.2866
yard	-11.2867
▁reactor	-11.2867
▁Bad	-11.2869
▁adjective	-11.287
▁1862	-11.2872
▁1969	-11.2872
▁duct	-11.2872
ต	-11.2872
▁4-	-11.2875
para	-11.2875
ци	-11.2882
▁killer	-11.2883
▁tourism	-11.2883
▁panic	-11.2887
▁lightning	-11.2888
▁thorough	-11.2888
tics	-11.2889
▁wilderness	-11.2893
▁Value	-11.2895
▁filling	-11.2895
night	-11.2896
▁Este	-11.2898
对	-11.2898
▁aboard	-11.29
▁pie	-11.2901
ifies	-11.2903
▁Base	-11.2904
▁soda	-11.2905
▁esp	-11.2905
▁hardly	-11.2906
▁Howard	-11.2907
▁observing	-11.2907
▁sole	-11.2907
CD	-11.2912
▁qué	-11.2913
▁attacked	-11.2913
▁modify	-11.2913
view	-11.2916
▁1870	-11.2917
▁Д	-11.2921
▁Yale	-11.2924
ume	-11.2926
▁opens	-11.2929
▁Programs	-11.293
▁Patients	-11.2931
lem	-11.2931
▁desde	-11.2934
▁Jordan	-11.2934
▁dialogue	-11.2941
▁rolling	-11.2941
▁robust	-11.2941
tant	-11.2942
▁perspectives	-11.2945
▁CPU	-11.2947
▁lava	-11.2948
▁Manual	-11.2948
▁divine	-11.295
▁Dead	-11.295
▁revised	-11.295
usually	-11.2951
▁inspire	-11.2954
▁Square	-11.2957
▁Colombia	-11.2957
atur	-11.2957
burn	-11.2961
NE	-11.2961
▁Excel	-11.2963
▁Chris	-11.2964
▁Cuba	-11.2965
▁twist	-11.2965
▁informal	-11.2966
▁algo	-11.2966
ried	-11.2969
edge	-11.297
▁Cost	-11.2976
num	-11.2976
▁Hyper	-11.2976
pass	-11.2979
other	-11.2979
▁pigment	-11.298
▁publisher	-11.298
▁1917	-11.2981
▁Channel	-11.2985
▁yes	-11.2985
UM	-11.2985
▁Sudan	-11.2987
▁Lady	-11.2987
▁mg	-11.2987
▁Animals	-11.2988
▁layout	-11.2991
▁microscopic	-11.2995
▁gravitational	-11.2996
▁Authority	-11.2997
▁tolerance	-11.2997
dem	-11.2998
ced	-11.2999
▁plural	-11.2999
value	-11.3
lib	-11.3004
▁Harbor	-11.3005
▁arrangement	-11.3005
▁identifies	-11.3007
▁Railroad	-11.3007
▁Tan	-11.3008
▁combines	-11.3011
▁therapeutic	-11.3011
case	-11.3011
▁cervical	-11.3011
▁precision	-11.3014
phone	-11.3015
▁jo	-11.3017
birds	-11.3019
▁1985	-11.302
ibility	-11.3022
▁Waste	-11.3023
▁Machine	-11.3023
bird	-11.3024
▁developments	-11.3026
▁fertilizer	-11.3026
tura	-11.3026
▁operator	-11.3027
▁neighbors	-11.3027
oh	-11.3028
gua	-11.3031
▁Card	-11.3034
por	-11.3035
▁wax	-11.3036
stan	-11.3036
▁passion	-11.3037
▁1914	-11.3038
▁grave	-11.3039
▁historia	-11.3042
two	-11.3046
lich	-11.3046
▁neurological	-11.3047
▁К	-11.3047
▁Explorer	-11.305
▁Arkansas	-11.3051
▁silent	-11.3052
▁Typically	-11.3053
▁Together	-11.3054
▁4:	-11.3057
▁instances	-11.3067
▁Few	-11.3068
▁Horse	-11.3068
▁acceptable	-11.3069
▁tin	-11.3071
▁Territory	-11.3073
▁pigs	-11.3073
▁verbal	-11.3073
aki	-11.3075
▁briefly	-11.3076
UL	-11.3076
week	-11.3076
▁crimes	-11.3078
used	-11.3079
DE	-11.3081
▁landed	-11.3081
gate	-11.3082
rag	-11.3083
▁prone	-11.3085
ction	-11.3085
▁bicycle	-11.3085
▁assessments	-11.3086
▁rat	-11.3086
4)	-11.3087
▁explanations	-11.3087
▁Publisher	-11.3092
Pre	-11.3093
▁Multiple	-11.3095
▁juvenile	-11.3096
met	-11.3097
uz	-11.3098
▁bloom	-11.3099
▁initiated	-11.31
ake	-11.3101
gh	-11.3101
▁Israeli	-11.3101
▁47	-11.3101
dle	-11.3107
▁cal	-11.3108
▁mad	-11.3108
jar	-11.3109
▁virtue	-11.311
▁dirt	-11.311
▁1948	-11.3111
▁swim	-11.3112
▁regulatory	-11.3115
▁disposal	-11.3115
▁flexibility	-11.3115
▁template	-11.3115
mato	-11.3119
▁forty	-11.3121
▁outstanding	-11.3121
▁monument	-11.3121
▁Style	-11.3121
▁1911	-11.3122
▁Tre	-11.3123
▁pond	-11.3124
▁invest	-11.3125
▁Female	-11.3126
▁dozens	-11.3127
LS	-11.3128
▁cyber	-11.3128
mber	-11.313
▁predictions	-11.3131
▁Birds	-11.3131
▁highlighted	-11.3131
▁Baltimore	-11.3132
▁consisted	-11.3132
▁enters	-11.3132
tom	-11.3133
▁bottles	-11.3133
▁capability	-11.3135
anti	-11.3136
month	-11.3137
▁usar	-11.3138
media	-11.3138
▁Autism	-11.3138
IO	-11.3138
▁complement	-11.3139
▁Disorder	-11.3141
▁commander	-11.3142
▁threatening	-11.3143
▁Sarah	-11.3149
▁antibiotic	-11.315
▁shrubs	-11.3151
▁continuously	-11.3152
▁pneumonia	-11.3153
▁edit	-11.3153
▁nursing	-11.3155
▁evolve	-11.3156
▁invisible	-11.3157
▁Gre	-11.3163
▁reserve	-11.3164
ered	-11.3165
lla	-11.3168
▁imagery	-11.3172
▁continental	-11.3173
rated	-11.3174
▁bull	-11.3179
▁implies	-11.3179
▁terrestrial	-11.3181
▁processor	-11.3183
▁winner	-11.3185
▁Night	-11.3185
▁composite	-11.3186
▁physicist	-11.3187
▁pipeline	-11.3188
▁Doctor	-11.3188
▁sphere	-11.3189
bio	-11.319
▁tech	-11.3191
▁preschool	-11.3193
▁relates	-11.3196
▁Boy	-11.3202
▁patches	-11.3204
▁answered	-11.3205
▁rocky	-11.3207
▁2000,	-11.3208
▁weakness	-11.321
▁exit	-11.3211
▁Gal	-11.3215
▁worms	-11.3218
▁mosquitoes	-11.3218
▁charter	-11.3219
▁sac	-11.3222
science	-11.3224
▁outdoors	-11.3225
base	-11.3225
▁wise	-11.3226
▁Milky	-11.3226
▁2009.	-11.323
erg	-11.3232
▁dragon	-11.3233
▁consistently	-11.3234
▁1968	-11.3234
▁dé	-11.3234
▁labeled	-11.3235
▁Calif	-11.3235
▁washing	-11.3239
ome	-11.3241
kes	-11.3242
▁Hot	-11.3243
▁persist	-11.3248
▁documentary	-11.3249
▁fastest	-11.325
▁cubic	-11.3251
▁diesel	-11.3251
▁Miss	-11.3251
▁olive	-11.3252
▁Used	-11.3252
▁Adobe	-11.3254
▁Product	-11.3254
▁payment	-11.3255
▁headaches	-11.3259
itive	-11.3259
▁Greenland	-11.3261
bug	-11.3262
▁conceptual	-11.3262
ander	-11.3263
▁antenna	-11.3267
▁Stories	-11.3267
▁fusion	-11.3269
dding	-11.3271
于	-11.3272
▁survivors	-11.3273
▁Highway	-11.3275
▁dish	-11.3278
pat	-11.3281
▁(7	-11.3283
▁frost	-11.3286
▁engagement	-11.3286
▁beds	-11.3287
PM	-11.3288
MB	-11.3288
▁naval	-11.3289
socia	-11.3291
▁leap	-11.3293
▁lets	-11.3293
▁lean	-11.3294
▁Neuro	-11.3294
▁vein	-11.3295
rom	-11.3296
▁distress	-11.3297
icle	-11.33
ensis	-11.33
▁Process	-11.3301
▁kit	-11.3301
▁Depending	-11.3303
▁ре	-11.3305
▁politicians	-11.3307
来	-11.3309
▁mines	-11.3309
▁combining	-11.331
▁Adult	-11.3311
▁degradation	-11.3312
llen	-11.3313
":	-11.3317
IF	-11.3318
▁Imperial	-11.3318
▁traced	-11.3321
▁operators	-11.3323
▁1975	-11.3323
▁passengers	-11.3328
wall	-11.3328
▁1984	-11.3329
▁concentrate	-11.333
▁episode	-11.333
▁Pur	-11.3331
▁Grades	-11.3332
mid	-11.3333
▁indication	-11.3333
▁protects	-11.3337
▁OR	-11.3338
▁pulled	-11.3338
▁watched	-11.334
▁religions	-11.3343
▁Associate	-11.3344
▁Tour	-11.3345
▁Sk	-11.3346
▁Maybe	-11.3346
▁blame	-11.3348
▁02	-11.3349
▁cavity	-11.3353
▁Ven	-11.3354
▁grams	-11.3356
ATE	-11.3358
▁Bla	-11.3358
▁heated	-11.3361
▁descent	-11.3362
▁Hal	-11.3362
▁mega	-11.3363
ometer	-11.3363
▁uterus	-11.3366
▁Dor	-11.3366
▁shares	-11.3366
▁linguistic	-11.3367
▁Además	-11.3368
▁Robot	-11.3372
▁Issues	-11.3372
▁markers	-11.3372
▁Alcohol	-11.3375
▁ruling	-11.3375
▁cooperative	-11.3375
▁Moore	-11.3377
▁shells	-11.3378
这	-11.3379
▁cer	-11.3381
▁practiced	-11.3381
你	-11.3383
▁departments	-11.3385
▁bind	-11.3388
▁Bull	-11.339
▁Buddhism	-11.339
▁_	-11.3391
▁90%	-11.3391
▁invited	-11.3392
▁pig	-11.3392
▁ter	-11.3393
▁pediatric	-11.3395
tiva	-11.3396
▁titles	-11.3397
▁1910	-11.3398
▁Den	-11.34
▁Song	-11.3403
▁Alan	-11.3403
▁jurisdiction	-11.3407
▁Guinea	-11.3407
▁Anglo	-11.3408
▁outbreaks	-11.3409
▁aluminum	-11.3412
hydr	-11.3414
▁fue	-11.3415
ila	-11.3415
▁Sho	-11.3415
▁treasure	-11.3416
▁Syn	-11.3418
▁chromosome	-11.342
!”	-11.342
▁т	-11.3421
▁refuge	-11.3422
mol	-11.3423
serv	-11.3424
▁Blog	-11.3426
bling	-11.3428
pod	-11.3428
▁Smithsonian	-11.3429
▁brick	-11.3429
▁portable	-11.3432
ules	-11.3433
minute	-11.3436
▁specify	-11.3439
▁fragments	-11.3439
▁licensed	-11.3439
▁beta	-11.344
▁Sim	-11.3441
▁feels	-11.3442
▁enabling	-11.3442
amine	-11.3446
▁pel	-11.3447
▁affairs	-11.3448
▁ich	-11.345
▁explosive	-11.3451
▁Pediatrics	-11.3454
Time	-11.3457
▁nurse	-11.3458
▁tick	-11.3458
▁Sandy	-11.346
▁orders	-11.3462
▁triggered	-11.3462
▁vez	-11.3463
▁Motor	-11.3463
▁tienes	-11.3464
▁astronomer	-11.3464
ttle	-11.3464
▁AT	-11.347
▁posible	-11.3471
▁Fast	-11.3472
▁snakes	-11.3473
▁Denmark	-11.3473
▁Tools	-11.3474
▁soy	-11.3475
▁bias	-11.3477
▁till	-11.3477
uel	-11.3478
ши	-11.3478
▁swing	-11.3484
piration	-11.3484
▁GDP	-11.3485
gio	-11.3485
▁10-	-11.3486
▁für	-11.3487
▁Hudson	-11.3488
▁qua	-11.3489
▁IA	-11.349
▁Syria	-11.349
front	-11.349
▁Near	-11.3491
star	-11.3492
▁5,000	-11.3495
▁microbes	-11.3496
▁modules	-11.3497
aire	-11.3497
▁ultra	-11.3499
▁crack	-11.3501
▁destructive	-11.3504
▁Bishop	-11.3504
▁Eu	-11.3505
wo	-11.3508
▁Flag	-11.3512
▁symbolic	-11.3514
▁ancestor	-11.3514
▁Problems	-11.3514
▁correlation	-11.3515
lly	-11.3516
▁Picture	-11.3516
▁Wide	-11.3517
▁consuming	-11.3518
▁Anna	-11.352
izar	-11.3524
▁pronounced	-11.3525
▁CON	-11.3526
▁amb	-11.3528
▁hu	-11.353
▁1944	-11.3531
▁indicator	-11.3532
▁Testing	-11.3534
good	-11.3537
ended	-11.3538
▁programación	-11.3538
▁Size	-11.3538
▁Pra	-11.3538
▁Helen	-11.354
makers	-11.3541
enberg	-11.3545
▁exotic	-11.3546
▁Cer	-11.3548
▁Structure	-11.3548
▁scratch	-11.3549
▁£	-11.3551
▁amendment	-11.3552
▁Plains	-11.3552
▁cartoon	-11.3553
▁Zone	-11.3557
ที่	-11.3563
▁SI	-11.3563
▁certificate	-11.3564
▁puedo	-11.3564
0)	-11.3565
▁absorption	-11.3566
▁recommends	-11.3566
▁corporate	-11.3567
▁Disorders	-11.3568
▁Found	-11.3571
SH	-11.3573
▁herbs	-11.3573
▁meanings	-11.3575
▁cite	-11.3576
▁duties	-11.3578
▁wit	-11.3578
Car	-11.3579
▁Orthodox	-11.3579
▁formats	-11.358
▁Personal	-11.358
home	-11.3581
▁Mur	-11.3583
FS	-11.3583
▁Response	-11.3583
west	-11.3584
▁turbines	-11.3584
▁catalog	-11.3587
▁Oak	-11.359
▁consensus	-11.359
▁Organic	-11.3591
face	-11.3591
▁Engineers	-11.3591
▁True	-11.3593
▁Il	-11.3594
▁Ridge	-11.3595
eau	-11.3596
cultural	-11.3597
▁Anderson	-11.3601
▁bump	-11.3601
▁clicking	-11.3603
▁Less	-11.3606
▁poster	-11.3607
▁palace	-11.361
▁700	-11.3611
▁offspring	-11.3615
▁Eco	-11.3617
first	-11.3618
▁drew	-11.362
▁airplane	-11.362
▁enabled	-11.3625
▁Meeting	-11.3625
▁trash	-11.3626
▁Gray	-11.3627
system	-11.3627
pdf	-11.3627
▁navigate	-11.3628
▁os	-11.3629
was	-11.3632
▁attach	-11.3633
▁Definitions	-11.3637
▁ignore	-11.3637
▁Mus	-11.3638
BI	-11.3639
▁disrupt	-11.3642
▁turtle	-11.3643
▁(20	-11.3645
▁supplied	-11.3646
▁Im	-11.3648
▁tribal	-11.3649
▁chill	-11.365
▁margin	-11.3651
atic	-11.3652
eng	-11.3652
got	-11.3652
second	-11.3652
▁Market	-11.3653
▁Transportation	-11.3654
200	-11.3655
▁frequencies	-11.3659
▁southeastern	-11.366
▁marrow	-11.3661
▁phases	-11.3663
▁inquiry	-11.3666
▁psycho	-11.3667
▁folder	-11.3669
▁ski	-11.3669
▁Form	-11.3671
▁requests	-11.3671
▁Breast	-11.3672
eal	-11.3673
▁Cyclopedia	-11.3673
▁refused	-11.3674
▁mankind	-11.3674
▁orbiting	-11.3675
▁sorts	-11.3679
▁anterior	-11.3679
▁Pole	-11.3681
▁Isaac	-11.3682
▁cry	-11.3686
▁101	-11.3688
▁standardized	-11.3689
▁affordable	-11.369
▁Comments	-11.369
▁ruler	-11.3692
▁2004,	-11.3695
▁rounded	-11.3697
▁aesthetic	-11.3698
▁Haiti	-11.37
▁meets	-11.3703
▁LA	-11.3703
▁gall	-11.3707
▁piano	-11.3708
▁poultry	-11.3709
▁chemotherapy	-11.3709
▁Bas	-11.3709
▁conservative	-11.3711
▁litter	-11.3714
Part	-11.3714
▁ko	-11.3719
▁NO	-11.3719
▁recipient	-11.372
▁maternal	-11.3722
▁lighter	-11.3723
▁ethics	-11.3724
▁EDT	-11.3724
loc	-11.3724
Or	-11.3725
▁gaining	-11.3725
▁harbor	-11.3727
▁hazard	-11.3729
▁kindergarten	-11.3734
▁paths	-11.3736
ais	-11.3737
▁pathogens	-11.3738
▁NA	-11.3738
▁Seven	-11.3741
▁shopping	-11.3741
▁delicate	-11.3742
▁assessed	-11.3743
▁sits	-11.3744
GA	-11.3744
hill	-11.3745
Qu	-11.3746
▁1933	-11.3747
▁battles	-11.3751
▁Liberty	-11.3752
▁coordinates	-11.3752
▁Win	-11.3753
ē	-11.3754
udi	-11.3758
▁capsule	-11.3759
▁Creating	-11.376
▁$3	-11.376
▁sanitation	-11.3761
▁Guidelines	-11.3761
DC	-11.3762
elo	-11.3762
▁lateral	-11.3763
▁Dry	-11.3764
▁servers	-11.3769
▁baseball	-11.3771
▁Fox	-11.3772
▁dimension	-11.3772
▁solely	-11.3773
▁Things	-11.3775
▁mimic	-11.3777
▁mythology	-11.3777
-9	-11.3778
cial	-11.3779
▁tipo	-11.3779
▁Brian	-11.378
That	-11.3783
▁Titan	-11.3787
▁nombre	-11.3789
▁Cast	-11.379
▁talked	-11.379
▁Critical	-11.3797
▁grasses	-11.3798
ically	-11.3803
chu	-11.3804
ения	-11.3804
▁absolutely	-11.3806
cad	-11.3807
▁contributes	-11.3808
▁charts	-11.3808
▁Evidence	-11.3808
▁prisoners	-11.3808
▁sketch	-11.3809
aya	-11.381
▁investigating	-11.3811
ode	-11.3812
▁Ship	-11.3813
craft	-11.3813
erate	-11.3815
Ca	-11.3816
▁wheels	-11.382
▁integrity	-11.382
▁highway	-11.3821
▁interviews	-11.3822
▁Scientist	-11.3823
▁airport	-11.3825
▁Delaware	-11.3829
▁Behavior	-11.3832
▁Info	-11.3832
▁raises	-11.3833
▁1965	-11.3836
holder	-11.384
▁Minor	-11.384
▁1912	-11.3844
▁Latino	-11.3844
person	-11.3844
▁assumption	-11.3846
▁1973	-11.3847
/2	-11.3847
▁95	-11.3847
▁trapped	-11.3847
▁intermediate	-11.385
▁scenarios	-11.385
от	-11.3851
▁surge	-11.3852
ют	-11.3853
▁Greeks	-11.3853
▁Gr	-11.3853
▁80%	-11.3856
</	-11.3856
Bu	-11.3858
▁advertising	-11.3858
▁Aid	-11.3859
▁breeds	-11.3859
▁5:	-11.386
▁Fortunately	-11.3861
▁NEW	-11.3861
▁Left	-11.3861
▁mainstream	-11.3862
▁mom	-11.3863
▁butterflies	-11.3863
▁Stage	-11.3865
▁número	-11.3865
▁queen	-11.3865
▁absent	-11.3867
cient	-11.3868
▁Canal	-11.3868
threatening	-11.387
▁SA	-11.3871
defined	-11.3875
tical	-11.3875
▁imperial	-11.3877
▁homo	-11.3878
▁rival	-11.3878
ulating	-11.3879
▁drops	-11.388
▁passive	-11.3881
▁quiz	-11.3883
▁cho	-11.3884
▁modelo	-11.3884
ifier	-11.3886
action	-11.3891
▁Universal	-11.3893
FA	-11.3897
-13	-11.3899
▁compression	-11.39
▁inserted	-11.3901
hel	-11.3902
▁1982	-11.3904
iza	-11.3905
fuel	-11.3905
การ	-11.3906
▁°	-11.3906
▁1976	-11.3908
▁remembered	-11.391
▁iPad	-11.3913
▁Cassini	-11.3913
yan	-11.3914
LC	-11.3917
oph	-11.3917
▁acquisition	-11.3918
▁1964	-11.3921
tract	-11.3921
El	-11.3922
▁immense	-11.3922
▁Too	-11.3923
oids	-11.3923
▁Margaret	-11.3927
等	-11.3928
▁jar	-11.3928
▁guided	-11.3928
▁49	-11.3929
▁inhabited	-11.3929
▁Tropical	-11.3929
▁hygiene	-11.3929
▁repeatedly	-11.3931
▁mistake	-11.3932
▁nicht	-11.3933
▁Android	-11.3933
▁Vision	-11.3934
crib	-11.3939
▁legislative	-11.3939
rr	-11.3941
▁warned	-11.3941
▁Toronto	-11.3941
▁caso	-11.3941
▁cuando	-11.3944
▁countless	-11.3945
▁assignments	-11.3947
▁provinces	-11.3948
▁biblical	-11.395
rea	-11.3952
GI	-11.3954
▁Hy	-11.3955
▁physiological	-11.3956
▁listing	-11.3957
▁Capital	-11.3957
▁Ground	-11.3958
▁statue	-11.3959
▁headache	-11.396
▁faint	-11.3961
▁furniture	-11.3966
▁instructor	-11.3966
▁ayudar	-11.397
depth	-11.3972
▁(9	-11.3973
▁peaceful	-11.3974
▁specialists	-11.3975
▁GIS	-11.3976
▁advocates	-11.3977
root	-11.3979
到	-11.3979
TC	-11.3979
▁thrown	-11.3979
▁Brook	-11.3982
▁promotion	-11.3985
▁memorial	-11.3986
▁Que	-11.3987
▁Mike	-11.3987
▁selling	-11.3988
PT	-11.3991
outs	-11.3991
SO	-11.3992
▁Genesis	-11.3992
▁singing	-11.3992
▁kann	-11.3993
▁premature	-11.3996
▁prehistoric	-11.3997
▁customer	-11.3999
▁Storm	-11.4001
▁challenged	-11.4004
▁cooked	-11.4005
▁defeated	-11.4005
▁recovered	-11.4005
▁carved	-11.4007
▁worm	-11.4009
▁1963	-11.401
▁fertile	-11.4012
▁inadequate	-11.4012
▁Active	-11.4015
▁Mayo	-11.4015
▁cri	-11.4016
▁sweat	-11.4017
▁Alberta	-11.4017
▁assumptions	-11.4018
▁Congo	-11.4019
▁Cru	-11.402
▁sectors	-11.4022
▁Br	-11.4025
ider	-11.4026
▁essence	-11.4027
jan	-11.4029
▁loan	-11.403
▁colleges	-11.4037
▁parte	-11.4038
▁DO	-11.4038
▁agenda	-11.4041
▁relies	-11.4041
▁conception	-11.4042
▁cube	-11.4042
▁structured	-11.4043
▁operational	-11.4044
▁drift	-11.4045
▁cart	-11.4046
PO	-11.4046
cup	-11.4046
▁sculpture	-11.4046
each	-11.4046
7)	-11.4047
▁var	-11.4048
▁appetite	-11.405
▁Idaho	-11.405
weed	-11.405
▁breakfast	-11.4052
生	-11.4053
▁Ana	-11.4054
▁recreational	-11.4054
▁bare	-11.4054
▁ко	-11.4056
mine	-11.4057
▁Approximately	-11.4057
ую	-11.4057
▁aquí	-11.4058
▁luz	-11.4058
▁Website	-11.4058
▁1863	-11.4059
▁potassium	-11.4059
▁sore	-11.406
show	-11.4062
▁admitted	-11.4065
▁Kra	-11.4065
▁descendants	-11.4067
▁edited	-11.4068
IG	-11.4069
quest	-11.407
▁digest	-11.407
▁Pr	-11.407
▁boats	-11.4071
▁gardening	-11.4073
▁summit	-11.4077
▁potato	-11.4077
Cl	-11.4077
his	-11.4078
IE	-11.4078
▁Close	-11.4082
▁biography	-11.4083
▁Upon	-11.4084
▁ME	-11.4085
▁Silver	-11.4086
cons	-11.4086
▁Phil	-11.4086
▁coordinate	-11.409
Per	-11.4093
▁illustrates	-11.4093
▁Describe	-11.4093
▁algebra	-11.4093
▁Cornell	-11.4095
▁ON	-11.4096
▁achievements	-11.4097
oriented	-11.4098
▁ignored	-11.4099
▁generator	-11.41
▁urgent	-11.41
▁Maps	-11.4101
ington	-11.4101
lab	-11.4102
▁reminder	-11.4103
▁ranks	-11.4104
NT	-11.4105
▁attempting	-11.4106
▁critically	-11.4107
▁weeds	-11.4108
▁Framework	-11.4108
▁parasites	-11.4109
▁depicted	-11.411
▁scholar	-11.411
▁Pop	-11.411
ным	-11.4111
▁considerably	-11.4111
▁Quick	-11.4112
ви	-11.4114
▁interval	-11.4114
ality	-11.4115
▁query	-11.4117
▁2008.	-11.4118
▁stalk	-11.4118
▁chemist	-11.4118
cost	-11.4119
wed	-11.4119
▁Pub	-11.412
▁stuck	-11.412
▁Pay	-11.4121
nte	-11.4122
▁Delta	-11.4123
▁flesh	-11.4124
▁syntax	-11.4124
tone	-11.4125
wave	-11.4127
▁weed	-11.4129
ну	-11.413
▁Besides	-11.4131
▁bases	-11.4132
ió	-11.4133
▁creator	-11.4133
▁builds	-11.4134
hoe	-11.4134
ees	-11.4134
▁veterinarian	-11.4136
▁revision	-11.4137
▁52	-11.4139
tta	-11.4139
AV	-11.4139
▁Panel	-11.4142
▁ultraviolet	-11.4145
▁Connect	-11.4146
▁assign	-11.4147
▁impaired	-11.4147
▁globally	-11.4148
▁Norman	-11.4149
▁Tower	-11.415
▁forgotten	-11.415
▁thoroughly	-11.4151
▁mor	-11.4151
▁mistakes	-11.4152
▁Progress	-11.4154
LT	-11.4154
▁Marshall	-11.4155
▁tragedy	-11.4155
▁Vermont	-11.4155
▁arrest	-11.4158
▁remind	-11.4158
▁Live	-11.4159
▁Skin	-11.4159
▁pioneer	-11.4161
▁restored	-11.4162
▁runoff	-11.4162
▁Gro	-11.4164
▁demographic	-11.4164
▁Direct	-11.4166
▁shipping	-11.4167
▁han	-11.4168
awa	-11.4173
▁Astronomy	-11.4174
▁winning	-11.4176
▁strikes	-11.4176
▁settlements	-11.4179
▁Reg	-11.4179
▁admit	-11.4183
MO	-11.4184
▁scarce	-11.4186
uda	-11.4186
▁fracture	-11.4186
▁Records	-11.4188
▁confusing	-11.4188
ened	-11.4188
MR	-11.4189
gia	-11.4189
OM	-11.419
ние	-11.4192
▁dentist	-11.4196
▁emergence	-11.4198
▁Doctors	-11.4199
▁disabled	-11.42
thing	-11.42
string	-11.42
▁Pick	-11.4202
▁1983	-11.4202
ending	-11.4203
onia	-11.4204
▁pulse	-11.4207
▁SC	-11.4207
▁Thailand	-11.4207
▁filters	-11.4209
▁crossed	-11.421
▁Stress	-11.4212
▁municipal	-11.4216
▁viable	-11.4216
▁hypertension	-11.4216
main	-11.4217
-14	-11.4217
▁odor	-11.4219
▁coastline	-11.4219
hon	-11.422
▁Bern	-11.4223
▁dynasty	-11.4223
▁Alliance	-11.4223
▁Events	-11.4227
▁09	-11.4228
▁promotes	-11.4228
▁favour	-11.4229
▁unclear	-11.4229
▁ISSN	-11.4229
phon	-11.4229
▁pushing	-11.4229
▁tired	-11.423
▁commit	-11.4231
▁imported	-11.4231
PR	-11.4233
▁Rub	-11.4234
nan	-11.4234
▁parish	-11.4237
fra	-11.4237
▁chat	-11.4238
▁deficit	-11.4238
▁shrub	-11.424
▁divers	-11.4243
▁Similar	-11.4243
▁dive	-11.4247
▁legislature	-11.4247
▁Rhode	-11.4248
▁enemies	-11.4249
▁Joe	-11.4251
▁determination	-11.4251
พ	-11.4252
At	-11.4254
▁gross	-11.4254
▁Meanwhile	-11.4254
ي	-11.4257
▁ambitious	-11.4259
▁tales	-11.426
▁dawn	-11.4261
▁cantidad	-11.4261
▁uncommon	-11.4262
▁1.2	-11.4262
▁sol	-11.4264
▁throne	-11.4265
▁(4)	-11.4265
▁bro	-11.4265
▁bridges	-11.4265
▁warfare	-11.4266
▁Tokyo	-11.4266
especially	-11.4266
left	-11.4267
▁Cri	-11.4269
▁matching	-11.427
▁UNESCO	-11.427
fort	-11.427
▁recipe	-11.4277
angle	-11.4277
▁revenue	-11.4277
▁voters	-11.4277
▁shooting	-11.4278
icular	-11.428
▁confined	-11.4281
▁wolf	-11.4282
eta	-11.4282
▁extensively	-11.4283
▁harness	-11.4283
▁republic	-11.4284
▁1967	-11.4285
▁Memory	-11.4287
arian	-11.4288
▁thumb	-11.429
click	-11.429
anda	-11.4291
▁anatomy	-11.4292
fl	-11.4293
▁hungry	-11.4293
▁calculator	-11.4293
▁dated	-11.4294
fri	-11.4299
▁illustration	-11.4301
▁reward	-11.4301
▁notably	-11.4303
Source	-11.4304
▁retreat	-11.4308
lessness	-11.431
Ho	-11.4311
▁senses	-11.4313
▁Register	-11.4314
▁Log	-11.4314
▁club	-11.4316
▁digit	-11.4316
▁undertaken	-11.4318
▁inexpensive	-11.4318
▁Barbara	-11.4319
▁retina	-11.4319
ncy	-11.432
ค	-11.4321
▁lenses	-11.4323
▁friction	-11.4323
▁Martian	-11.4324
sel	-11.4324
▁Sites	-11.4326
▁elephant	-11.4328
▁discomfort	-11.4328
▁introducing	-11.4328
DI	-11.4329
▁renowned	-11.4329
▁Format	-11.4333
▁sulfur	-11.4333
▁Dog	-11.4334
ا	-11.4335
▁Tax	-11.4335
speed	-11.4336
food	-11.4337
ente	-11.4338
▁Judaism	-11.4338
CM	-11.4338
▁monkeys	-11.4339
▁1981	-11.4339
▁Intel	-11.434
▁printer	-11.4342
▁línea	-11.4342
sburg	-11.4345
shed	-11.4346
▁announcement	-11.435
ores	-11.4351
上	-11.4353
мер	-11.4353
▁frog	-11.4354
▁Background	-11.4355
▁Ecology	-11.4357
▁packed	-11.4357
▁100%	-11.4362
▁Ring	-11.4363
thirds	-11.4366
▁algunas	-11.4366
▁dishes	-11.4366
▁leak	-11.4368
▁tuberculosis	-11.4369
▁54	-11.4371
▁Hamilton	-11.4371
▁volcanoes	-11.4373
▁conserve	-11.4374
▁Eat	-11.4375
▁ur	-11.4376
▁plains	-11.4377
gna	-11.4377
▁defect	-11.4378
▁ants	-11.4381
▁ESA	-11.4383
▁namely	-11.4383
▁govern	-11.4384
▁Never	-11.4384
ô	-11.4385
▁Falls	-11.4388
▁interpreted	-11.4389
▁stops	-11.439
AY	-11.439
▁hollow	-11.439
cket	-11.4391
ий	-11.4391
▁todos	-11.4392
▁Traditional	-11.4392
▁cargo	-11.4393
▁stretching	-11.4395
mond	-11.4395
▁emotion	-11.4397
▁appearing	-11.4397
▁monarch	-11.4397
chemical	-11.4398
▁surprisingly	-11.4398
▁realm	-11.4398
CT	-11.44
▁08	-11.44
▁approval	-11.44
▁flock	-11.44
▁limestone	-11.44
▁coordination	-11.4403
ALL	-11.4404
▁eu	-11.4404
▁squ	-11.4404
▁Federation	-11.4405
▁anemia	-11.4405
▁Path	-11.4406
▁entity	-11.4407
▁milli	-11.4407
▁customs	-11.441
▁Med	-11.4411
▁hosts	-11.4412
▁MI	-11.4413
▁Associated	-11.4415
▁pursuit	-11.4417
after	-11.4418
colored	-11.4418
▁Effective	-11.4418
Go	-11.4419
anza	-11.442
lea	-11.442
▁cro	-11.4422
▁Myth	-11.4424
rapist	-11.4424
▁thickness	-11.4427
▁passenger	-11.4433
acre	-11.4434
iter	-11.4434
▁poder	-11.4434
arse	-11.4437
▁Len	-11.4437
▁SP	-11.4441
version	-11.4442
▁commemorate	-11.4442
▁concert	-11.4444
▁costly	-11.4447
thy	-11.4447
▁plague	-11.4448
▁dass	-11.4448
▁formally	-11.4448
▁deck	-11.4449
▁platforms	-11.4449
Ne	-11.445
▁counts	-11.4454
▁evaluating	-11.4456
▁utilizar	-11.4456
▁Childhood	-11.4456
util	-11.4457
▁repository	-11.4458
▁desktop	-11.4458
▁ext	-11.4459
▁Status	-11.446
▁manufacturer	-11.4461
▁avoiding	-11.4462
▁careers	-11.4462
corn	-11.4462
▁cleaner	-11.4464
▁crude	-11.4464
▁Southwest	-11.4465
▁seventh	-11.4466
building	-11.4466
▁1812	-11.4466
▁gentle	-11.4467
▁donde	-11.4468
▁python	-11.4469
▁substantially	-11.4469
▁folks	-11.4471
CI	-11.4473
▁constitute	-11.4473
▁tanto	-11.4474
▁Pages	-11.4475
▁presentations	-11.4475
▁160	-11.4478
ici	-11.4479
▁comparable	-11.4479
▁planes	-11.4479
▁Poll	-11.4481
▁venture	-11.4481
▁cooler	-11.4482
LY	-11.4484
▁Guard	-11.4485
▁Sen	-11.4485
▁northeastern	-11.4485
▁Oh	-11.4486
▁echo	-11.4487
▁gi	-11.449
vas	-11.449
▁Ak	-11.449
nation	-11.449
dan	-11.4494
▁meetings	-11.4497
▁burst	-11.4498
▁halt	-11.4498
▁pride	-11.4499
▁otro	-11.4501
▁Economics	-11.4502
æ	-11.4502
economic	-11.4503
▁preliminary	-11.4504
▁aprender	-11.4504
▁Kim	-11.4505
▁Bow	-11.4506
▁bacterium	-11.4508
kel	-11.4509
▁pharmaceutical	-11.4509
yer	-11.4509
▁Queensland	-11.4509
▁lectures	-11.451
▁Clo	-11.451
▁specimen	-11.451
▁Molecular	-11.4512
HC	-11.4513
unk	-11.4514
▁tomatoes	-11.4516
▁gaps	-11.4519
FC	-11.4521
▁Object	-11.4521
▁Bangladesh	-11.4521
yr	-11.4523
oxy	-11.4524
сти	-11.4525
▁promoted	-11.4525
▁uranium	-11.4526
▁cheaper	-11.4527
▁determines	-11.4528
▁Fred	-11.4531
▁Wo	-11.4533
GE	-11.4534
▁PHP	-11.4535
▁Share	-11.4538
OW	-11.4538
▁pesticide	-11.454
▁butterfly	-11.4541
▁journals	-11.4542
▁Meta	-11.4543
▁vis	-11.4544
▁derivative	-11.4546
count	-11.4548
▁decimal	-11.4549
div	-11.455
hop	-11.455
▁Lecture	-11.4551
▁wastewater	-11.4552
▁completing	-11.4553
▁Cam	-11.4555
▁inequality	-11.4556
▁similarities	-11.4558
heat	-11.4558
▁generates	-11.4559
control	-11.4559
▁1978	-11.4561
▁truck	-11.4561
▁б	-11.4561
▁nesting	-11.4563
▁mus	-11.4564
▁Reader	-11.4564
▁1961	-11.4567
gie	-11.4569
▁designer	-11.4572
▁semiconductor	-11.4573
▁DVD	-11.4573
ily	-11.4574
▁updates	-11.4576
▁convention	-11.4578
▁prolonged	-11.4578
FP	-11.4579
uga	-11.4581
▁eighth	-11.4582
▁boards	-11.4582
▁Broad	-11.4585
▁72	-11.4587
dir	-11.459
▁Nepal	-11.459
▁Known	-11.4591
▁manipulate	-11.4592
▁spa	-11.4592
▁bur	-11.4593
▁Chronic	-11.4596
▁tienen	-11.4596
▁simplest	-11.4598
hem	-11.4599
ение	-11.4599
▁stamp	-11.4599
▁CSS	-11.4599
▁operates	-11.46
▁turbine	-11.4602
▁Academic	-11.4602
▁Hampshire	-11.4605
TI	-11.4605
▁surname	-11.4606
▁Beyond	-11.4606
▁wondered	-11.4606
▁colours	-11.4607
oper	-11.4607
▁races	-11.4608
▁collision	-11.461
▁reside	-11.461
curr	-11.4614
▁insert	-11.4617
ulated	-11.4619
▁1947	-11.462
▁Revolutionary	-11.462
att	-11.4621
▁museums	-11.4621
normal	-11.4624
atus	-11.4624
▁Effects	-11.4625
▁attending	-11.4625
▁analog	-11.4626
▁bas	-11.4628
rest	-11.4629
profit	-11.463
▁Additional	-11.463
bla	-11.463
▁Lang	-11.4631
▁Genetic	-11.4631
▁newborn	-11.4631
▁Swiss	-11.4632
▁Address	-11.4632
▁limb	-11.4632
ound	-11.4632
▁Speech	-11.4634
▁mobility	-11.4637
TR	-11.4637
group	-11.4638
▁bass	-11.464
▁guns	-11.4646
▁Nevertheless	-11.4647
▁Radiation	-11.4648
igen	-11.4649
carbon	-11.4656
▁Gospel	-11.4656
rit	-11.4657
▁pipes	-11.4657
▁verification	-11.4658
▁VA	-11.466
chan	-11.466
▁Update	-11.4661
▁thy	-11.4664
▁dies	-11.4667
▁Commons	-11.4667
▁numerical	-11.4669
▁reinforce	-11.4669
▁anchor	-11.467
FF	-11.467
▁entertainment	-11.4672
rator	-11.4673
▁kings	-11.4673
▁diamond	-11.4674
га	-11.4674
▁sw	-11.4675
▁machinery	-11.4678
▁telescopes	-11.4679
▁goddess	-11.4679
▁agua	-11.468
▁Ant	-11.4683
▁rust	-11.4684
▁Had	-11.4684
▁acknowledge	-11.4685
▁importantly	-11.4686
▁Character	-11.4687
▁flare	-11.4688
▁refugees	-11.469
▁ceramic	-11.4691
ith	-11.4693
core	-11.4693
6)	-11.4695
▁holidays	-11.4695
▁hace	-11.4696
oz	-11.4697
▁Production	-11.4703
▁voluntary	-11.4704
▁foliage	-11.4704
").	-11.4705
▁entities	-11.4707
mod	-11.4707
mun	-11.4709
▁sends	-11.471
ê	-11.4713
▁carrier	-11.4715
vant	-11.4715
▁microwave	-11.4717
▁1971	-11.4718
▁uncovered	-11.4722
▁Identify	-11.4722
Mon	-11.4723
▁Terra	-11.4727
▁5-	-11.4727
▁tomorrow	-11.4728
▁syn	-11.4729
▁Era	-11.4729
try	-11.473
▁07	-11.473
▁adventure	-11.4731
som	-11.4731
migr	-11.4731
▁handful	-11.4731
▁burns	-11.4732
▁Alternative	-11.4733
▁tragic	-11.4734
exp	-11.4734
▁20,000	-11.4734
▁gains	-11.4736
▁Infection	-11.4736
▁М	-11.4737
▁inhibit	-11.4738
▁glasses	-11.4739
▁conform	-11.474
▁fence	-11.474
▁approaching	-11.474
Grade	-11.4744
viv	-11.4746
▁Coastal	-11.4748
▁walked	-11.4749
ld	-11.4751
they	-11.4754
▁Madison	-11.4756
▁lasted	-11.4757
ня	-11.4757
▁1-	-11.476
▁Tur	-11.476
▁Cleveland	-11.4761
▁presenting	-11.4764
▁dual	-11.4764
▁Better	-11.4767
▁Behind	-11.4768
▁ions	-11.4769
▁execute	-11.477
▁periodic	-11.4772
▁balls	-11.4773
▁Commonwealth	-11.4773
▁surveillance	-11.4776
▁2001,	-11.4777
maker	-11.4778
▁assembled	-11.4778
▁Trees	-11.4781
▁->	-11.4781
▁ма	-11.4781
▁afraid	-11.4783
▁Finland	-11.4787
▁obscure	-11.4787
▁HPV	-11.4788
omi	-11.4788
▁beetles	-11.4789
add	-11.4794
rup	-11.4795
gene	-11.4796
pto	-11.4796
▁obviously	-11.4796
hot	-11.4797
▁COM	-11.4798
▁endemic	-11.4798
▁regulated	-11.4798
▁practitioners	-11.4798
▁Race	-11.4798
PP	-11.4799
▁Ye	-11.4799
▁Dur	-11.4802
▁generic	-11.4803
▁hoping	-11.4803
General	-11.4804
▁Lanka	-11.4806
ital	-11.4808
′	-11.4811
Mi	-11.4814
▁releases	-11.4816
▁Affairs	-11.4816
▁bloodstream	-11.4816
rse	-11.4816
▁Ang	-11.4817
▁emitted	-11.4819
▁Obesity	-11.4819
▁uncertainty	-11.4819
▁wolves	-11.4821
▁Browse	-11.4824
▁potent	-11.4825
▁incredibly	-11.4826
▁estos	-11.4827
sex	-11.4828
▁Thor	-11.4831
▁Joint	-11.4832
▁ли	-11.4833
▁draws	-11.4833
▁abroad	-11.4834
▁theater	-11.4835
WS	-11.4841
ò	-11.4844
▁packaging	-11.4844
say	-11.4847
rist	-11.4848
▁Located	-11.4851
▁Names	-11.4853
▁exhibits	-11.4853
▁surgeon	-11.4855
▁emp	-11.4856
▁dem	-11.4857
▁По	-11.4857
▁cone	-11.4857
▁Room	-11.4858
▁51	-11.4858
section	-11.4861
分	-11.4863
▁tries	-11.4865
▁grants	-11.4866
▁sting	-11.4867
Man	-11.4869
▁pronunciation	-11.4869
pul	-11.4869
▁pos	-11.487
aciones	-11.487
▁organisation	-11.4871
▁attribute	-11.4871
dale	-11.4873
▁expose	-11.4874
boat	-11.4875
▁clip	-11.4875
▁Fukushima	-11.4877
▁#1	-11.4877
▁archives	-11.4877
▁están	-11.488
▁Monument	-11.4882
▁mixing	-11.4882
lling	-11.4883
▁tanks	-11.4883
▁Napoleon	-11.4884
▁worried	-11.4884
▁Rod	-11.4885
March	-11.4886
▁Earl	-11.4886
▁gauge	-11.4887
▁lesser	-11.4889
▁employ	-11.489
nz	-11.4891
▁Poor	-11.4891
▁1962	-11.4894
alis	-11.4897
▁fears	-11.49
▁Roll	-11.49
▁wondering	-11.49
▁intersection	-11.4901
▁premise	-11.4902
▁Cover	-11.4903
▁prevents	-11.4903
▁replacing	-11.4904
ogen	-11.4905
English	-11.4906
▁limbs	-11.4906
▁1974	-11.4906
▁Athens	-11.491
▁Signs	-11.4911
▁declining	-11.4912
▁hasn	-11.4913
▁cake	-11.4913
▁raid	-11.4914
▁checked	-11.4914
stat	-11.4916
▁witnessed	-11.4919
▁programmes	-11.4919
▁laptop	-11.492
▁milestone	-11.4921
▁Dragon	-11.4921
▁shouldn	-11.4923
cular	-11.4924
▁erect	-11.4924
uer	-11.4926
▁Orange	-11.4928
▁specially	-11.493
▁blindness	-11.4933
▁proceed	-11.4935
▁blocked	-11.4937
▁stake	-11.4938
▁Store	-11.4938
SM	-11.4942
▁Alfred	-11.4942
fen	-11.4944
▁textbooks	-11.4944
▁frogs	-11.4944
▁Members	-11.4944
generation	-11.4945
▁Letters	-11.4946
▁parasite	-11.4948
▁outlines	-11.4948
▁meditation	-11.4948
▁herb	-11.4948
▁000	-11.495
▁dots	-11.4952
▁Eli	-11.4953
ego	-11.4953
▁coil	-11.4954
▁Areas	-11.4954
▁Genetics	-11.4955
HR	-11.4955
▁iPhone	-11.4955
▁zinc	-11.4958
▁epic	-11.496
HO	-11.4963
HI	-11.4964
▁hurricanes	-11.4966
▁breakdown	-11.4967
Name	-11.497
▁gar	-11.4972
▁kills	-11.4972
▁(12	-11.4974
▁TR	-11.4975
▁Made	-11.4975
bur	-11.4976
▁temperate	-11.4977
▁Sto	-11.4978
▁Band	-11.498
▁muscular	-11.4981
▁compelling	-11.4981
▁Creation	-11.4982
forming	-11.4983
II	-11.4986
▁controller	-11.4988
▁trips	-11.4989
▁marker	-11.4989
▁Bruce	-11.499
▁genre	-11.4991
pon	-11.4992
▁Complete	-11.4994
apa	-11.4994
▁blank	-11.4996
eller	-11.4997
▁Includes	-11.4998
▁loaded	-11.4999
▁Bon	-11.5
▁unhealthy	-11.5001
▁berries	-11.5001
▁Ros	-11.5001
wig	-11.5003
▁Monitoring	-11.5007
▁peripheral	-11.5009
▁freezing	-11.5009
WA	-11.5011
▁cement	-11.5012
▁populated	-11.5014
FO	-11.5017
▁03	-11.5017
▁clients	-11.5017
▁Fer	-11.5018
ย	-11.5019
change	-11.5019
▁slower	-11.5023
▁Portugal	-11.5024
▁offset	-11.5024
▁saturated	-11.5025
▁Hence	-11.5027
▁modest	-11.5027
▁coronary	-11.5028
▁adulthood	-11.5028
▁polymer	-11.503
wire	-11.5034
▁Vienna	-11.5034
PD	-11.5037
▁riding	-11.5037
▁bend	-11.5039
▁06	-11.5039
ira	-11.5043
Home	-11.5045
▁tide	-11.5046
city	-11.5046
▁assert	-11.5047
▁Architecture	-11.5048
▁Nelson	-11.5051
▁56	-11.5051
titude	-11.5051
ige	-11.5052
vil	-11.5053
rug	-11.5053
sim	-11.5054
▁Anthony	-11.5055
▁connects	-11.5056
master	-11.5056
▁rigid	-11.5058
June	-11.5065
▁Command	-11.5065
▁skilled	-11.5065
▁consent	-11.5066
▁centered	-11.5072
▁appointment	-11.5072
child	-11.5072
▁foundations	-11.5072
hold	-11.5073
wick	-11.5074
▁selecting	-11.5077
▁inflammatory	-11.5078
▁orbital	-11.5079
ridge	-11.5082
▁caffeine	-11.5083
brown	-11.5084
▁Thanksgiving	-11.5086
TP	-11.5087
▁ABC	-11.5088
▁copying	-11.5088
▁cups	-11.509
▁genital	-11.5091
mini	-11.5092
▁Jul	-11.5092
▁Senator	-11.5094
▁intervals	-11.5094
▁preserving	-11.5095
▁garbage	-11.5096
cover	-11.5097
▁abnormalities	-11.5097
cycl	-11.5098
▁Dynasty	-11.5099
▁Antonio	-11.51
▁Baby	-11.51
▁singular	-11.5102
▁reddish	-11.5104
▁temp	-11.5105
tell	-11.5105
▁mandate	-11.5105
Ad	-11.5106
▁inland	-11.5107
▁Skip	-11.5107
▁Kit	-11.5108
FT	-11.5109
▁charges	-11.5111
▁shoot	-11.5112
▁automatic	-11.5114
во	-11.5114
▁behalf	-11.5115
400	-11.5117
/10	-11.5121
▁Rocky	-11.5122
▁liberty	-11.5122
▁Branch	-11.5123
▁leather	-11.5125
kill	-11.5125
ах	-11.5127
▁dams	-11.5127
▁Important	-11.5128
▁scans	-11.5129
▁beer	-11.513
▁1938	-11.5133
▁Hope	-11.5134
▁harvesting	-11.5135
▁RO	-11.5138
▁disappeared	-11.5138
▁patron	-11.514
▁Met	-11.514
▁30%	-11.514
▁Come	-11.5141
lang	-11.5142
▁yo	-11.5142
lau	-11.5142
▁seizures	-11.5142
▁integer	-11.5145
▁pueda	-11.5145
lli	-11.5147
hat	-11.5148
▁marble	-11.5154
▁rope	-11.5156
▁Foreign	-11.5156
rc	-11.5156
▁declare	-11.5158
▁Overall	-11.5158
▁publish	-11.5159
▁quote	-11.5159
▁surveyed	-11.516
AF	-11.5161
▁Starting	-11.5161
▁ink	-11.5162
▁thesis	-11.5164
▁bullet	-11.5164
▁Nat	-11.5164
Ta	-11.5166
▁farther	-11.5166
LU	-11.5167
▁Sel	-11.517
▁04	-11.517
▁Alex	-11.5172
▁180	-11.5173
▁Puerto	-11.5174
▁Birth	-11.5175
он	-11.5176
▁tonnes	-11.5177
▁banned	-11.5177
▁Ottoman	-11.5178
▁featuring	-11.518
▁2003,	-11.5181
ffin	-11.5181
▁exceptional	-11.5183
▁pal	-11.5183
ifica	-11.5184
▁drain	-11.5184
▁quantitative	-11.5185
▁publishing	-11.5185
aut	-11.5188
▁pancreas	-11.519
▁graders	-11.5191
▁Mah	-11.5191
▁Hawaiian	-11.5194
RNA	-11.5196
fr	-11.5198
▁render	-11.5198
▁stressed	-11.5198
▁STEM	-11.5199
frame	-11.5199
▁inclusion	-11.5199
▁0.0	-11.52
9)	-11.52
▁resort	-11.5201
▁weren	-11.5202
▁astronomical	-11.5203
▁Original	-11.5207
▁Sexual	-11.5208
▁responded	-11.5209
▁triple	-11.5211
▁todo	-11.5212
▁conductor	-11.5218
▁Applied	-11.5219
▁transported	-11.522
rn	-11.5223
▁Task	-11.5226
jun	-11.5229
▁Prophet	-11.5229
▁functionality	-11.5231
▁darkness	-11.5232
▁dreams	-11.5233
▁automated	-11.5233
2,000	-11.5235
▁nearest	-11.5236
▁Zi	-11.5237
▁economically	-11.5238
▁lion	-11.5241
▁swine	-11.5241
▁Growth	-11.5242
▁untreated	-11.5244
▁Reform	-11.5245
mir	-11.5245
▁partition	-11.5245
▁пере	-11.5248
▁nasal	-11.5249
▁engineered	-11.5251
toxic	-11.5251
nit	-11.5253
▁Hong	-11.5254
▁caves	-11.5256
▁Reports	-11.5258
▁Jet	-11.5258
▁stunning	-11.5258
▁prohibit	-11.526
▁physicists	-11.526
▁40%	-11.5261
▁años	-11.5264
▁southwestern	-11.5264
▁wires	-11.5265
▁receptors	-11.5268
▁utilized	-11.5268
▁empower	-11.5269
hom	-11.5269
Photo	-11.5274
▁whi	-11.5276
▁moments	-11.5278
▁Py	-11.5278
▁Palestine	-11.5279
▁1919	-11.5279
away	-11.528
▁joining	-11.528
▁Flood	-11.5282
▁neighboring	-11.5282
MENT	-11.5283
▁tune	-11.5283
▁License	-11.5284
▁spiders	-11.5287
▁Voice	-11.5288
plasm	-11.5288
effective	-11.5288
▁exhaust	-11.5288
▁slip	-11.5288
▁Teach	-11.5289
ologic	-11.5291
▁Certain	-11.5291
▁Spec	-11.5291
▁Scripture	-11.5293
▁undergo	-11.5294
▁Senior	-11.5295
activity	-11.5296
▁inspection	-11.5296
uta	-11.5296
▁Polar	-11.5296
▁mammal	-11.5297
▁histories	-11.5297
▁oils	-11.5298
▁harvested	-11.5302
▁Turkish	-11.5303
▁vivid	-11.5303
▁assessing	-11.5305
bell	-11.5305
rim	-11.5305
▁confident	-11.5307
ERS	-11.5307
▁obstacles	-11.5308
▁fibre	-11.5308
▁Bun	-11.531
▁compressed	-11.5311
Col	-11.5317
▁Inside	-11.5318
▁Clinton	-11.5318
▁Horn	-11.532
▁median	-11.5321
cio	-11.5321
▁Les	-11.5322
rap	-11.5323
ß	-11.5324
▁https	-11.5324
▁appreciation	-11.5324
▁ф	-11.5324
▁bronze	-11.5326
▁Atlanta	-11.5329
▁rib	-11.533
▁Wyoming	-11.5332
▁130	-11.5332
▁fetus	-11.5332
▁petition	-11.5335
▁2015	-11.5335
▁1865	-11.5336
▁MRI	-11.5337
▁urge	-11.5338
▁terrible	-11.534
ald	-11.5341
▁Rule	-11.5341
▁inherent	-11.5341
▁elder	-11.5343
▁verify	-11.5343
▁Soon	-11.5343
▁mph	-11.5344
▁apples	-11.5345
▁gro	-11.5346
▁hate	-11.5347
▁ray	-11.5349
bound	-11.535
▁solved	-11.535
cott	-11.5352
fly	-11.5353
▁peninsula	-11.5353
▁Express	-11.5355
▁Specifically	-11.5359
▁ponds	-11.5361
▁rotate	-11.5362
▁suited	-11.5363
▁computational	-11.5366
▁tourist	-11.5366
▁fiscal	-11.5366
AG	-11.5368
▁Available	-11.5369
▁trait	-11.537
▁incidents	-11.537
▁accumulation	-11.5371
▁slopes	-11.5375
▁Fin	-11.5375
▁barely	-11.5376
▁spur	-11.5378
▁ceiling	-11.5379
▁declaration	-11.538
▁soup	-11.5381
▁Similarly	-11.5382
▁Exploration	-11.5382
volu	-11.5383
going	-11.5384
▁contraction	-11.5384
▁Jay	-11.5384
▁cub	-11.5385
▁investigations	-11.5386
▁vowel	-11.5387
CDC	-11.539
▁Mobile	-11.539
▁1977	-11.5392
▁Eve	-11.5392
▁logging	-11.5393
eration	-11.5393
▁chromosomes	-11.5394
▁limiting	-11.5394
▁sich	-11.5395
▁dock	-11.5396
ket	-11.5396
▁sewage	-11.5396
▁socio	-11.5397
▁Wolf	-11.5398
▁durante	-11.5398
▁clause	-11.5399
VA	-11.5401
▁hotel	-11.5402
nus	-11.5402
▁substrate	-11.5403
▁intact	-11.5404
▁57	-11.5404
▁decreases	-11.5405
地	-11.5405
▁Off	-11.5406
▁missed	-11.5406
▁commercially	-11.5407
▁Kin	-11.541
▁suppress	-11.5412
ход	-11.5412
ismo	-11.5413
rig	-11.5416
▁workshops	-11.5416
ELL	-11.5417
▁offshore	-11.5418
▁Publications	-11.5418
▁BCE	-11.542
за	-11.542
▁Naval	-11.5424
▁attain	-11.5426
▁woods	-11.5427
▁Ren	-11.5427
▁seas	-11.543
▁beetle	-11.543
▁Concern	-11.543
▁qualified	-11.543
▁1943	-11.543
▁scholarship	-11.5431
▁Nicholas	-11.5431
▁140	-11.5432
▁reptiles	-11.5432
rou	-11.5433
以	-11.5434
April	-11.5437
▁lip	-11.5437
▁Kong	-11.5438
จ	-11.5441
▁lump	-11.5442
opia	-11.5442
▁Morgan	-11.5449
▁Principles	-11.5454
ston	-11.5455
▁fortune	-11.5457
▁Mormon	-11.5458
electric	-11.5458
▁Vaccine	-11.5459
▁medicinal	-11.5462
▁episodes	-11.5464
▁accessed	-11.5465
scape	-11.5466
ду	-11.5466
AA	-11.5467
▁Tool	-11.5468
理	-11.5468
▁continually	-11.5468
▁Discuss	-11.5469
ás	-11.5469
▁designation	-11.5471
▁exceed	-11.5473
▁poses	-11.5475
▁AL	-11.5476
piece	-11.5476
▁ent	-11.5478
▁mainland	-11.5478
AGE	-11.5481
▁advocate	-11.5481
▁pointing	-11.5483
▁Manhattan	-11.5484
▁1936	-11.5487
▁Germans	-11.549
▁digits	-11.5491
▁laboratories	-11.5492
сь	-11.5493
▁introductory	-11.5494
▁elephants	-11.5495
number	-11.5495
▁05	-11.5496
▁avoided	-11.5497
▁Growing	-11.5498
ounce	-11.5503
▁hanging	-11.5503
▁Pri	-11.5503
▁pointer	-11.5503
▁mismo	-11.5507
▁outlined	-11.5507
▁PR	-11.5509
▁protocols	-11.551
▁Bus	-11.5514
user	-11.5515
▁Hemisphere	-11.5516
zar	-11.5517
▁пред	-11.5517
▁perceive	-11.5519
▁dolphins	-11.5521
▁Manager	-11.5525
▁cla	-11.5525
▁Caesar	-11.5527
eva	-11.5528
▁flora	-11.5528
▁angel	-11.553
▁Rice	-11.5531
With	-11.5531
▁posed	-11.5531
▁champion	-11.5532
mul	-11.5532
▁recognised	-11.5534
▁flip	-11.5534
▁Workshop	-11.5535
▁necesita	-11.5538
▁threshold	-11.5538
▁ultrasound	-11.5538
▁aids	-11.5538
▁Atlas	-11.5538
▁Launch	-11.5539
▁encompasses	-11.5539
▁Baptist	-11.5541
▁fifteen	-11.5541
▁friendship	-11.5543
▁basket	-11.5543
▁Technologies	-11.5543
▁Ter	-11.5543
ización	-11.5544
▁intention	-11.5544
LP	-11.5544
▁dependence	-11.5545
▁Belgium	-11.5546
▁dys	-11.5546
▁q	-11.5548
NI	-11.555
▁EST	-11.5554
▁Communications	-11.5556
▁matches	-11.5556
▁climbing	-11.5556
▁Window	-11.5558
duct	-11.5559
▁proxy	-11.5559
▁pap	-11.5561
▁BY	-11.5561
▁Maya	-11.5563
▁hub	-11.5563
metric	-11.5563
▁cualquier	-11.5565
▁бы	-11.5565
▁ruins	-11.5566
ых	-11.5567
▁nurses	-11.5567
Net	-11.5567
bon	-11.5568
▁ke	-11.5568
▁chord	-11.5571
▁uso	-11.5572
▁pepper	-11.5573
▁banana	-11.5574
wind	-11.5575
▁pathways	-11.5575
▁Adults	-11.5576
▁Я	-11.5577
▁exc	-11.5581
▁staying	-11.5582
astic	-11.5583
▁ме	-11.5583
▁hydraulic	-11.5586
▁1840	-11.5588
▁Twenty	-11.5589
▁lesions	-11.5589
▁squares	-11.5589
▁Lar	-11.559
▁esto	-11.5591
▁surroundings	-11.5591
▁thrust	-11.5592
▁campaigns	-11.5594
▁upcoming	-11.5595
их	-11.5595
▁hosted	-11.5597
▁grocery	-11.5597
gli	-11.5598
▁caution	-11.5603
awn	-11.5604
▁30,000	-11.5604
▁diferencia	-11.5605
▁peanut	-11.5605
▁storing	-11.5606
▁artwork	-11.561
▁accumulate	-11.5611
▁currents	-11.5611
growing	-11.5611
▁modes	-11.5615
▁acoustic	-11.5616
▁comic	-11.5617
▁combinations	-11.562
▁diabetic	-11.562
bad	-11.562
▁OK	-11.5621
unc	-11.5623
rite	-11.5623
▁Ethiopia	-11.5624
の	-11.5626
▁acceleration	-11.5627
▁canvas	-11.5627
▁checking	-11.5628
▁composer	-11.563
▁aerial	-11.5631
▁intestinal	-11.5632
▁dissolved	-11.5636
NG	-11.5637
▁1500	-11.5637
▁Mt	-11.5637
pop	-11.564
▁blade	-11.564
▁Muhammad	-11.5641
▁fragile	-11.5641
▁Britannica	-11.5641
ike	-11.5641
▁newsletter	-11.5641
bridge	-11.5644
▁shake	-11.5644
▁meteorite	-11.5646
▁tornado	-11.5647
▁Document	-11.5647
▁grip	-11.5651
▁vous	-11.5652
▁methodology	-11.5654
lov	-11.5655
▁receptor	-11.5656
▁deposit	-11.5657
dict	-11.5658
quer	-11.5658
▁recession	-11.5659
▁wavelength	-11.5659
▁Marie	-11.566
▁Pol	-11.5661
pit	-11.5661
▁mast	-11.5663
lica	-11.5663
▁Representatives	-11.5665
▁timeline	-11.5665
cht	-11.5666
▁stretches	-11.5672
▁Cra	-11.5673
dec	-11.5675
▁Allah	-11.5676
start	-11.5676
have	-11.5677
cid	-11.5678
▁rigorous	-11.5682
▁urinary	-11.5684
▁calculation	-11.5685
▁rebel	-11.5685
vision	-11.5687
▁Temperature	-11.5687
▁definitive	-11.5687
▁Reviewed	-11.5691
▁1915	-11.5695
▁lacking	-11.5696
▁smokers	-11.5697
▁Wash	-11.5698
▁Communist	-11.5698
▁Sources	-11.5699
▁permanently	-11.57
▁Bang	-11.5701
tailed	-11.5704
▁graduated	-11.5704
▁submarine	-11.5704
▁extraction	-11.5704
▁pol	-11.5704
▁dispute	-11.5704
▁reads	-11.5706
▁applicable	-11.5706
▁amateur	-11.5706
ё	-11.5708
▁USGS	-11.5709
▁Wil	-11.5709
▁Internal	-11.5709
▁administrators	-11.5711
▁gate	-11.5713
▁exile	-11.5714
▁Industry	-11.5715
olo	-11.5716
▁archaeologists	-11.5717
▁2007.	-11.5717
▁metaphor	-11.5717
▁accommodate	-11.5717
ль	-11.5721
only	-11.5724
2009	-11.5724
ше	-11.5725
▁prompted	-11.5725
▁institute	-11.5726
▁rig	-11.5728
▁4)	-11.5728
▁Zu	-11.573
ques	-11.573
▁Film	-11.5731
▁angry	-11.5731
▁Kings	-11.5732
ое	-11.5732
▁preferences	-11.5733
▁1830	-11.5733
▁overhead	-11.5733
▁Palestinian	-11.5734
▁sm	-11.5737
▁terrorist	-11.5739
▁bu	-11.5739
▁Herb	-11.5739
▁Higher	-11.574
▁chains	-11.574
▁Circle	-11.574
izer	-11.5741
image	-11.5741
▁hoped	-11.5743
atio	-11.5744
yne	-11.5746
▁investigator	-11.5746
▁Lin	-11.5747
▁constraints	-11.5749
▁factories	-11.5749
▁AR	-11.5749
▁Quebec	-11.5751
▁fauna	-11.5751
ility	-11.5753
му	-11.5753
▁herd	-11.5753
▁hunters	-11.5755
▁provisions	-11.5755
tions	-11.5756
▁bishop	-11.5757
аль	-11.5757
▁incorrect	-11.5758
▁Mil	-11.5759
tique	-11.5762
▁Virgin	-11.5762
▁dome	-11.5762
aud	-11.5763
▁ki	-11.5767
▁smile	-11.5768
▁Angel	-11.5768
▁marking	-11.577
▁==	-11.5771
lies	-11.5771
▁shelf	-11.5774
▁nausea	-11.5775
▁marsh	-11.5775
▁Construction	-11.5776
▁san	-11.5779
▁así	-11.578
▁seats	-11.578
▁Czech	-11.5781
member	-11.5782
▁pathway	-11.5782
▁pressing	-11.5783
arium	-11.5784
▁gamma	-11.5784
▁Tea	-11.5784
▁occasional	-11.5787
▁SU	-11.5787
▁geologic	-11.5787
щ	-11.5787
▁rein	-11.5788
lee	-11.5789
title	-11.579
▁triggers	-11.5791
▁forcing	-11.5791
▁Creative	-11.5793
RD	-11.5793
tum	-11.5793
▁pregunta	-11.5793
▁implant	-11.5794
▁2050	-11.5794
▁comprise	-11.5794
▁Fuel	-11.5794
▁osteoporosis	-11.5795
▁poles	-11.5797
▁acceptance	-11.58
▁aviation	-11.58
▁hook	-11.5802
▁rub	-11.5804
▁neo	-11.5813
▁Dogs	-11.5816
▁Pap	-11.5817
Te	-11.5818
▁sandy	-11.5818
▁Fr	-11.582
▁turkey	-11.582
▁fired	-11.5821
▁mut	-11.5824
black	-11.5825
▁membership	-11.5827
▁traumatic	-11.5829
▁2002,	-11.583
▁freeze	-11.5832
▁Protect	-11.5833
▁followers	-11.584
▁simulations	-11.5843
▁Karl	-11.5843
▁merit	-11.5844
million	-11.5845
▁4,000	-11.5846
▁adolescent	-11.5847
▁asbestos	-11.5848
('	-11.5848
▁fled	-11.5848
▁void	-11.5849
▁110	-11.5852
▁Pine	-11.5852
▁courage	-11.5853
roma	-11.5853
▁dot	-11.5854
▁joke	-11.5854
▁microorganisms	-11.5854
▁fans	-11.5856
法	-11.5856
▁BE	-11.5859
▁Collections	-11.586
idos	-11.5861
worms	-11.5861
▁tense	-11.5861
▁AN	-11.5863
▁cultivation	-11.5864
▁Ok	-11.587
▁Rot	-11.5872
▁None	-11.5872
ogram	-11.5873
Date	-11.5873
▁cl	-11.5874
▁Side	-11.5874
▁Interest	-11.5874
cop	-11.5874
▁bars	-11.5875
▁Half	-11.5876
лю	-11.5877
▁wages	-11.5877
▁variant	-11.5877
ии	-11.5878
▁Normal	-11.5879
▁linking	-11.5883
▁Always	-11.5885
Â	-11.5887
])	-11.5888
▁1916	-11.5888
▁secular	-11.589
▁cult	-11.5891
▁Reef	-11.5892
▁uncertain	-11.5894
▁manuscript	-11.5896
▁х	-11.5896
▁correction	-11.5899
▁Jonathan	-11.5903
▁ports	-11.5906
▁strongest	-11.5906
▁glow	-11.5907
Hi	-11.5911
books	-11.5911
EPA	-11.5913
||3	-11.5913
▁prince	-11.5914
▁Rate	-11.5914
▁tub	-11.5915
▁coincide	-11.5915
▁sind	-11.5916
▁abortion	-11.5919
▁Costa	-11.5922
▁simulate	-11.5922
ulus	-11.5924
▁correspond	-11.5925
iving	-11.5926
▁Renewable	-11.5926
eptic	-11.5926
uma	-11.5928
▁geometric	-11.5928
▁bot	-11.5933
▁activists	-11.5937
▁ayuda	-11.5938
uh	-11.5939
▁monitored	-11.594
▁pray	-11.594
▁Diversity	-11.594
ив	-11.594
rte	-11.5942
eria	-11.5942
▁cage	-11.5943
watch	-11.5944
Is	-11.5944
▁muchos	-11.5945
▁shortage	-11.5945
▁Kal	-11.595
▁flew	-11.5951
▁inability	-11.5953
▁Vice	-11.5955
UC	-11.5958
pper	-11.596
▁cigarette	-11.5962
▁decoration	-11.5962
▁dirty	-11.5963
▁recreation	-11.5963
▁gram	-11.5964
▁rap	-11.5966
▁Europeans	-11.5966
▁Gil	-11.5966
fla	-11.5968
▁worksheet	-11.5969
▁reactors	-11.5971
▁uma	-11.5972
▁Handbook	-11.5972
▁Against	-11.5972
▁critics	-11.5974
▁appliances	-11.5974
▁observer	-11.5975
▁organisations	-11.5975
▁Intelligence	-11.5976
▁rejected	-11.5977
▁Measure	-11.5979
▁schizophrenia	-11.5979
---	-11.5979
jet	-11.5981
▁caring	-11.5982
uni	-11.5984
об	-11.5984
quire	-11.5984
▁Bin	-11.5985
▁Imaging	-11.5985
▁FAQ	-11.5986
▁odds	-11.5987
▁grazing	-11.5988
▁prosperity	-11.5989
▁multiply	-11.5989
▁investigators	-11.599
▁53	-11.599
▁voices	-11.5991
miss	-11.5992
▁Т	-11.5993
▁fits	-11.5993
▁honour	-11.5996
▁counterparts	-11.5996
▁seminar	-11.5997
may	-11.5997
▁manifest	-11.5998
ür	-11.5999
▁Palace	-11.6
▁divert	-11.6003
▁Role	-11.6004
▁ayudarte	-11.6004
▁Singapore	-11.6005
▁mientras	-11.6005
▁Plat	-11.6006
▁LI	-11.6007
▁Build	-11.6007
German	-11.601
Vi	-11.601
▁edible	-11.6012
logical	-11.6013
▁Bone	-11.6015
▁0.5	-11.6015
▁desk	-11.6016
▁Armstrong	-11.6016
▁350	-11.6017
sten	-11.6018
▁Scout	-11.6018
▁Rabbi	-11.6018
mouth	-11.6019
hab	-11.602
▁variability	-11.6022
ups	-11.6023
▁glimpse	-11.6025
Ge	-11.6025
▁prob	-11.6026
▁helmet	-11.6027
▁String	-11.6028
▁celebrating	-11.6028
▁embryo	-11.6028
▁Austin	-11.6029
▁encontrar	-11.603
▁Money	-11.603
▁emphasize	-11.6031
▁reservoir	-11.6031
▁Rain	-11.6032
▁heaven	-11.6037
▁Anyone	-11.6039
成	-11.6041
four	-11.6043
▁prints	-11.6044
▁insulation	-11.6044
half	-11.6045
tico	-11.6046
▁dominate	-11.6046
__	-11.6047
▁WASHINGTON	-11.6047
▁Tam	-11.6047
standing	-11.6049
ется	-11.6053
ν	-11.6053
тор	-11.6053
ILL	-11.6054
Edit	-11.6055
▁coupled	-11.6062
▁veterans	-11.6062
▁br	-11.6063
▁bunch	-11.6063
▁Institutes	-11.6063
rad	-11.6063
▁unnecessary	-11.6065
▁contexts	-11.6067
▁gifts	-11.607
▁Coll	-11.6072
▁valor	-11.6072
▁reflecting	-11.6072
parent	-11.6073
▁cartilage	-11.6073
▁oder	-11.6073
ту	-11.6075
▁receiver	-11.6076
▁explorers	-11.6078
▁чтобы	-11.6079
▁successor	-11.608
hid	-11.6081
▁id	-11.6082
▁cemetery	-11.6084
▁conquest	-11.6084
▁ciudad	-11.6087
▁Block	-11.6088
▁automobile	-11.6089
▁depths	-11.6092
▁Sy	-11.6094
sort	-11.6095
▁1946	-11.6096
▁Temp	-11.6098
doc	-11.6098
▁1898	-11.6098
ishing	-11.6099
▁permitted	-11.6099
▁tourists	-11.6099
▁induced	-11.61
stream	-11.6101
▁priorities	-11.6101
▁gradual	-11.6101
▁guest	-11.6101
December	-11.6105
ucle	-11.6105
▁ré	-11.6106
▁mag	-11.6112
terdisciplinary	-11.6112
мо	-11.6112
▁Danish	-11.6112
▁Gun	-11.6113
▁mutual	-11.6113
▁Austrian	-11.6113
▁г	-11.6117
/3	-11.6118
▁immunity	-11.6119
▁suspended	-11.612
▁racism	-11.6121
▁votes	-11.6122
▁invite	-11.6122
witch	-11.6123
▁convinced	-11.6125
phi	-11.6125
mass	-11.6125
▁shots	-11.6126
speaking	-11.6128
kg	-11.6128
▁momentum	-11.6128
50,000	-11.6129
▁wetland	-11.613
▁innovations	-11.613
▁confi	-11.6131
▁valleys	-11.6132
▁Distribution	-11.6133
▁trains	-11.6136
▁secretary	-11.6137
▁Arc	-11.6137
▁fro	-11.6138
amos	-11.6138
▁Satellite	-11.6139
▁Therapy	-11.6139
▁''	-11.6139
▁simpler	-11.6143
NP	-11.6143
▁glance	-11.6143
▁practicing	-11.6144
▁gel	-11.6145
▁prediction	-11.6146
▁parameter	-11.6147
▁tha	-11.6147
.00	-11.6148
▁Cave	-11.615
▁contaminants	-11.6152
▁Coal	-11.6152
rol	-11.6152
▁dec	-11.6153
▁orbits	-11.6153
▁rains	-11.6155
▁autonomous	-11.6156
▁которые	-11.6156
▁estrogen	-11.6159
raw	-11.6159
жи	-11.6161
2.5	-11.6161
▁brutal	-11.6162
▁1929	-11.6163
▁contrary	-11.6164
▁steadily	-11.6164
▁staple	-11.6165
▁Nar	-11.6165
▁Malaysia	-11.6166
lastname	-11.6166
▁eager	-11.6167
▁Kent	-11.6167
▁Experience	-11.6167
▁Carol	-11.6168
▁2.0	-11.6168
▁closing	-11.6171
held	-11.6171
си	-11.6172
▁Hills	-11.6172
itt	-11.6173
▁indoors	-11.6174
▁loans	-11.6174
▁Guatemala	-11.6176
▁crawl	-11.6176
▁1937	-11.6177
▁civilian	-11.6177
▁cas	-11.6177
▁Neo	-11.618
▁apps	-11.6182
▁Matt	-11.6183
▁alpha	-11.6183
▁motivated	-11.6183
▁notation	-11.6185
heim	-11.6186
▁differs	-11.6187
▁Detroit	-11.6187
▁Bru	-11.6188
▁Campaign	-11.619
lian	-11.6191
▁studio	-11.6192
~	-11.6194
▁Meaning	-11.6195
inger	-11.6197
posed	-11.6197
▁predominantly	-11.6197
▁credited	-11.6198
▁comprising	-11.6199
▁seals	-11.6199
lick	-11.62
▁Ali	-11.62
▁FREE	-11.62
▁vascular	-11.6204
GS	-11.6204
▁contagious	-11.6205
▁migrate	-11.6206
DD	-11.6208
July	-11.6209
▁luck	-11.6209
culture	-11.6209
▁Sports	-11.6212
ott	-11.6212
▁placement	-11.6212
▁$4	-11.6213
▁internationally	-11.6213
▁Alice	-11.6213
logist	-11.6214
▁Bol	-11.622
▁Pearl	-11.622
▁fails	-11.6221
▁restaurant	-11.6224
▁Dream	-11.6225
▁commerce	-11.6227
▁considerations	-11.6227
ncia	-11.6227
▁publicly	-11.6228
▁competing	-11.6231
meters	-11.6231
▁temples	-11.6232
▁Pluto	-11.6234
▁ven	-11.6235
▁Stem	-11.6236
▁Medieval	-11.6237
▁Carr	-11.6238
▁bubble	-11.6239
▁Term	-11.6239
VM	-11.6239
▁arrow	-11.6242
▁terminology	-11.6242
▁Infant	-11.6243
Li	-11.6244
▁Terms	-11.6244
▁Mol	-11.6245
▁Gran	-11.6245
▁vegetarian	-11.6245
▁employers	-11.625
▁producer	-11.6251
▁Humans	-11.6254
▁exclusive	-11.6254
▁seismic	-11.6254
hm	-11.6254
▁Everything	-11.6255
▁improves	-11.6255
ones	-11.6256
▁significa	-11.6257
ush	-11.626
▁Plus	-11.6262
▁reconstruction	-11.6263
▁sie	-11.6264
▁belly	-11.6266
itor	-11.627
ер	-11.6271
▁Reason	-11.6271
ancy	-11.6273
git	-11.6274
▁Johns	-11.6278
▁inscription	-11.6278
▁Topic	-11.628
▁1935	-11.6281
▁GA	-11.6282
ол	-11.6283
▁unwanted	-11.6283
▁psychologist	-11.6284
▁citizenship	-11.6284
▁Iceland	-11.6286
filled	-11.6286
▁rod	-11.6287
▁sequencing	-11.6289
▁Biodiversity	-11.6289
▁wie	-11.6289
▁infinite	-11.6291
▁headquarters	-11.6293
crypt	-11.6293
сть	-11.6293
▁Letter	-11.6293
▁val	-11.6294
▁tire	-11.6294
▁Organ	-11.6295
▁pla	-11.6296
прав	-11.6297
▁punto	-11.6298
▁aggregate	-11.6298
▁primer	-11.6298
▁mentor	-11.6301
▁gluten	-11.6305
▁Innovation	-11.6306
▁neglect	-11.6307
▁Root	-11.6308
pher	-11.6309
▁Colonial	-11.631
▁threaten	-11.6314
▁shores	-11.6314
▁Princeton	-11.6315
▁Sil	-11.6315
出	-11.6316
م	-11.6318
▁germ	-11.6318
▁gallery	-11.6318
▁theatre	-11.6319
▁accelerate	-11.6319
ок	-11.632
▁immigrant	-11.6322
ник	-11.6323
▁vend	-11.6324
▁alarming	-11.6324
▁oven	-11.6328
bas	-11.6329
▁plastics	-11.633
DO	-11.6331
▁associations	-11.6332
▁magnificent	-11.6333
She	-11.6333
cies	-11.6336
▁distribute	-11.6337
ello	-11.6338
plane	-11.634
多	-11.634
▁exams	-11.6341
▁Programming	-11.6341
inc	-11.6342
▁youngest	-11.6343
▁Indo	-11.6343
▁manipulation	-11.6345
▁Fre	-11.6345
▁aquarium	-11.6347
lier	-11.6347
▁Homo	-11.6349
▁Brazilian	-11.6349
▁fractures	-11.6349
▁tema	-11.635
anth	-11.6352
▁germs	-11.6353
▁laugh	-11.6353
ι	-11.6353
▁Conditions	-11.6354
▁Earlier	-11.6354
omb	-11.6354
+1	-11.6355
▁Person	-11.6357
Note	-11.6358
▁omega	-11.636
▁wavelengths	-11.636
nov	-11.6365
turn	-11.6365
GP	-11.6365
▁rainforest	-11.6368
▁fer	-11.6368
nut	-11.6369
▁gang	-11.6369
August	-11.637
▁fil	-11.637
▁sauce	-11.6372
ope	-11.6372
▁sensing	-11.6374
▁Sw	-11.6376
scription	-11.6377
clo	-11.6377
▁backyard	-11.6378
▁Eagle	-11.6383
▁monster	-11.6383
ста	-11.6385
▁Spi	-11.6386
▁depressed	-11.6388
▁activate	-11.6389
aster	-11.639
▁legendary	-11.639
▁calorie	-11.639
▁decir	-11.6393
ый	-11.6394
▁Solomon	-11.6394
▁celestial	-11.6394
eno	-11.6395
European	-11.6397
▁visually	-11.6398
▁esophagus	-11.64
▁leukemia	-11.64
mper	-11.6401
bone	-11.6403
▁readability	-11.6405
▁interference	-11.6406
▁membranes	-11.6407
▁sugars	-11.6409
eon	-11.641
lumin	-11.6411
▁bal	-11.6413
rod	-11.6413
▁graphs	-11.6413
▁eff	-11.6414
ท	-11.6416
▁tre	-11.6416
▁58	-11.6416
▁upward	-11.6418
▁monuments	-11.6418
тер	-11.6418
oria	-11.6419
▁2005.	-11.642
hap	-11.6421
▁nu	-11.6421
uro	-11.6421
▁Ty	-11.6422
▁(14	-11.6422
▁Round	-11.6422
▁intimate	-11.6424
imp	-11.6424
▁separately	-11.6426
▁subspecies	-11.6427
▁logo	-11.6429
▁Various	-11.6434
keeper	-11.6434
poli	-11.6435
length	-11.6435
▁admission	-11.6436
▁1966	-11.6439
▁explorer	-11.644
▁Florence	-11.6442
▁mejorar	-11.6444
▁dropping	-11.6444
▁Financial	-11.6444
▁User	-11.6445
▁UNICEF	-11.6445
▁divisions	-11.6445
▁Stock	-11.6446
cock	-11.6447
▁indirect	-11.6447
▁vest	-11.6448
▁cruise	-11.6448
▁Continental	-11.6449
▁Surgery	-11.645
▁advent	-11.6451
▁promised	-11.6451
▁towers	-11.6452
▁citation	-11.6452
Com	-11.6452
▁socially	-11.6453
▁Parent	-11.6453
▁pun	-11.6456
▁Egg	-11.6456
▁paste	-11.6457
мен	-11.6457
tia	-11.6459
note	-11.646
▁rev	-11.646
▁Numbers	-11.6461
ete	-11.6461
▁dialect	-11.6461
there	-11.6462
▁Eventually	-11.6465
▁deforestation	-11.6468
▁energía	-11.6468
▁downward	-11.6469
▁900	-11.6472
▁converting	-11.6472
aid	-11.6473
eating	-11.6474
will	-11.6475
▁slice	-11.648
▁Russell	-11.648
▁advise	-11.6481
▁Friends	-11.6482
EY	-11.6483
▁temporal	-11.6485
▁speaks	-11.6487
▁nonprofit	-11.6491
▁wounded	-11.6494
solving	-11.6494
ная	-11.6495
▁Resolution	-11.6495
▁Tests	-11.6496
▁ties	-11.6496
▁Luke	-11.6497
▁Gordon	-11.6498
▁2006.	-11.6498
▁eighteenth	-11.6499
▁inputs	-11.65
▁enrolled	-11.65
Tr	-11.6505
▁Gender	-11.6505
▁probable	-11.6506
▁necessity	-11.6508
▁25%	-11.6508
▁novels	-11.6509
▁peculiar	-11.651
▁Arabia	-11.651
▁Olympics	-11.651
▁dorsal	-11.6511
▁Zo	-11.6512
ма	-11.6514
▁Stein	-11.6516
▁Symbol	-11.6517
▁Benefits	-11.6517
▁shale	-11.6518
▁curiosity	-11.6519
定	-11.652
▁1949	-11.6522
temp	-11.6523
▁honest	-11.6525
▁Avenue	-11.6528
▁trails	-11.6528
▁pocket	-11.6528
▁delayed	-11.6529
▁fre	-11.653
нов	-11.653
▁employee	-11.653
▁Bolivia	-11.6531
▁Bloom	-11.6531
native	-11.6531
600	-11.6533
ε	-11.6533
▁Giant	-11.6535
pend	-11.6535
thro	-11.6536
▁damp	-11.6538
bia	-11.6538
▁nut	-11.6541
▁united	-11.6541
gor	-11.6544
Why	-11.6545
ddy	-11.6545
John	-11.6545
TV	-11.6547
▁easiest	-11.6548
▁Lisa	-11.6549
wen	-11.655
▁physiology	-11.655
mmer	-11.655
▁organizing	-11.6551
▁typography	-11.6552
cious	-11.6552
▁filed	-11.6552
▁рас	-11.6552
▁Khan	-11.6555
▁respective	-11.6556
▁quit	-11.6557
▁microbial	-11.656
▁beverages	-11.6564
▁compatible	-11.6565
▁maximize	-11.6565
▁hind	-11.6566
▁deaf	-11.6567
▁neighborhoods	-11.6569
▁promises	-11.6571
▁Monitor	-11.6572
▁comm	-11.6574
▁quake	-11.6576
lash	-11.6577
▁proceso	-11.6578
▁analytical	-11.6579
▁Crime	-11.658
mag	-11.6583
▁monastery	-11.6584
▁Generation	-11.6585
pal	-11.6586
▁hits	-11.6589
▁Norwegian	-11.659
▁alloy	-11.6591
▁conceived	-11.6592
walk	-11.6592
-30	-11.6593
▁Celsius	-11.6593
▁displaced	-11.6594
▁boast	-11.6594
▁stool	-11.6595
▁blanket	-11.6596
▁GE	-11.6597
▁captain	-11.6597
dig	-11.6597
▁tolerate	-11.6598
▁Palm	-11.6604
TT	-11.6605
▁detector	-11.6605
▁Chesapeake	-11.6605
▁través	-11.6605
▁wounds	-11.6609
▁Artist	-11.6611
rah	-11.6612
▁legally	-11.6613
▁decreasing	-11.6614
▁nests	-11.6615
Ch	-11.6616
▁Midwest	-11.6617
HealthDay	-11.6618
▁feeds	-11.6619
quin	-11.662
aver	-11.6621
iner	-11.6623
▁shifts	-11.6624
▁Discussion	-11.6625
▁pulmonary	-11.6626
▁Thinking	-11.663
▁во	-11.663
▁routinely	-11.6631
▁Interior	-11.6633
▁headlines	-11.6633
▁Statement	-11.6633
▁curved	-11.6633
NR	-11.6634
▁scholarly	-11.6635
▁stereo	-11.6636
▁couples	-11.6636
▁Provide	-11.6638
bol	-11.6638
▁Claro	-11.6638
▁supernova	-11.6639
▁Send	-11.6639
▁Loss	-11.664
had	-11.6641
▁Taiwan	-11.6642
▁tidal	-11.6642
▁continents	-11.6642
ам	-11.6644
▁regiment	-11.6644
▁Mini	-11.6645
ori	-11.6645
▁1864	-11.6645
▁lawyer	-11.6646
▁Engine	-11.6647
NY	-11.6647
1,000	-11.6649
▁randomly	-11.665
▁Define	-11.6651
▁daylight	-11.6653
FL	-11.6656
▁Fisheries	-11.6657
dium	-11.6659
▁Male	-11.6659
▁endless	-11.666
▁naked	-11.666
▁overlooked	-11.6661
present	-11.6662
World	-11.6663
▁peaks	-11.6664
▁deployed	-11.6666
▁Chan	-11.6668
▁opt	-11.6668
▁scanning	-11.667
▁somehow	-11.6671
October	-11.6672
▁strictly	-11.6673
▁pumps	-11.6673
▁Bernard	-11.6676
▁resonance	-11.6678
▁rendering	-11.6678
▁tutor	-11.6678
▁housed	-11.6684
dam	-11.6687
▁educator	-11.6687
▁imposed	-11.6687
▁waterways	-11.6689
▁detecting	-11.6689
central	-11.669
τ	-11.669
▁Robinson	-11.6691
▁shaft	-11.6691
▁Plato	-11.6694
▁foam	-11.6694
▁readings	-11.6695
แ	-11.6696
enta	-11.6698
▁snack	-11.6699
▁Classical	-11.6699
▁Choice	-11.67
▁1905	-11.67
▁dubbed	-11.6702
▁mosaic	-11.6702
▁commentary	-11.6702
▁spe	-11.6706
▁strengths	-11.6707
▁socket	-11.6707
ны	-11.6708
▁Independent	-11.6709
▁Develop	-11.671
▁Strait	-11.671
▁Lessons	-11.6712
▁Stay	-11.6713
▁99	-11.6716
▁precautions	-11.6716
▁anyway	-11.6717
cla	-11.6717
▁sens	-11.6718
▁monkey	-11.6719
▁armies	-11.6722
formed	-11.6723
▁athletic	-11.6723
▁frames	-11.6724
▁bites	-11.6725
▁П	-11.6726
">	-11.6726
▁eligible	-11.6726
▁Interactive	-11.673
▁resembles	-11.673
often	-11.6732
▁Rosa	-11.6732
▁autoimmune	-11.6732
social	-11.6735
▁trabajo	-11.6735
▁dividing	-11.6736
▁researching	-11.6736
own	-11.6737
▁Row	-11.6737
▁passages	-11.6737
icia	-11.6738
▁Lion	-11.6738
▁touching	-11.6738
▁strive	-11.6738
▁harmony	-11.6739
▁digestion	-11.6741
▁Glossary	-11.6748
▁hectares	-11.6748
ное	-11.6749
aco	-11.6749
▁(0	-11.6751
▁burrow	-11.6752
▁hora	-11.6753
▁loads	-11.6754
▁Changes	-11.6754
▁Est	-11.6754
▁Village	-11.6756
▁termed	-11.6756
▁moons	-11.6756
▁rag	-11.6757
▁Beijing	-11.6757
▁Catherine	-11.6757
▁sorry	-11.6757
▁strokes	-11.6757
rab	-11.6758
▁Jeff	-11.6758
▁66	-11.6759
EF	-11.6761
▁recipes	-11.6762
▁births	-11.6762
▁desirable	-11.6763
▁rent	-11.6764
▁typ	-11.6767
▁expectancy	-11.6769
cel	-11.6771
National	-11.6772
fix	-11.6774
▁straightforward	-11.6775
▁harmless	-11.6776
▁creek	-11.6776
▁sho	-11.6776
▁Mun	-11.6776
From	-11.6777
▁rim	-11.678
iente	-11.6781
▁Hans	-11.6781
aci	-11.6781
▁Epi	-11.6784
efficient	-11.6785
7,000	-11.6786
ungen	-11.6787
▁teoría	-11.679
▁failing	-11.6792
RL	-11.6792
▁refuse	-11.6793
▁retired	-11.6798
▁Perspective	-11.68
▁proximity	-11.68
▁nail	-11.6802
▁fantastic	-11.6802
▁corporations	-11.6803
▁Protein	-11.6804
Br	-11.6809
▁verbs	-11.681
▁Sample	-11.681
BE	-11.6812
▁darker	-11.6812
▁62	-11.6813
▁También	-11.6815
▁processors	-11.6816
▁Thu	-11.6817
▁Lor	-11.6819
▁cookies	-11.6822
▁phosphorus	-11.6822
▁Hydro	-11.6822
▁BP	-11.6822
▁Drawing	-11.6823
▁30-	-11.6824
▁Aristotle	-11.6824
▁Rapid	-11.6825
▁00	-11.6827
▁wrist	-11.6828
▁basal	-11.6829
▁visitor	-11.683
▁Summit	-11.6831
eight	-11.6831
▁slender	-11.6833
▁Developing	-11.6833
▁bore	-11.6834
▁preventable	-11.6834
▁Crow	-11.6836
▁heel	-11.6836
▁governing	-11.6839
stick	-11.684
[...]
